▁südwind 2063
▁oberen 2882
▁einschließlich 2655
▁heißt 1304
▁beruhigt 1310
punkt 1161
stau 2476
ats 2074
ree 1347
▁immerhin 1254
▁regengebiete 2519
▁sechsundzwanzigsten 1662
▁schweden 2842
ür 786
▁end 1813
▁schlei 1474
▁wolkenfeldern 2103
gel 1739
isches 2824
und 51
▁kältere 1532
▁niederschlagsgebiet 3583
▁see 760
▁muss 666
tälern 2460
▁häufigsten 2099
▁atlantisch 1362
▁dau 2295
uchen 2044
▁autoschei 3564
▁neunten 1837
dlich 2265
▁märz 1356
▁bis 103
von 1342
üss 2467
anzieh 1904
▁dennoch 2924
▁dass 936
▁herrscht 2944
gland 527
zig 1549
▁abschw 2863
bar 879
▁eigentlich 1285
▁verteil 3280
▁zw 321
▁heftiger 2373
▁regional 2101
dass 1738
▁auch 96
▁auflösung 2329
▁andauert 3467
▁elbe 1136
▁lässt 1099
▁nordwind 1895
▁wahrscheinlicher 3402
▁fort 2157
▁finn 2761
▁fran 1149
ag 66
ssen 906
cker 1652
▁neuschnee 2000
▁man 779
▁ostfriesischen 3518
▁westen 193
ss 2275
▁freundlichen 2070
▁nieseln 3480
annen 3219
ast 1180
▁erfreu 3033
sch 117
decken 3345
▁nordwesten 298
▁genauso 2227
▁seine 2583
▁intens 2434
haup 3067
▁schneeflo 1457
▁anson 823
▁schwäch 1985
▁ausn 2174
stärk 1815
▁trockener 1416
rop 510
▁heißer 1846
oren 1512
tz 1507
▁bayrischem 2897
▁verantwortlich 2676
zu 1745
▁sonniger 1449
▁getrübt 3610
▁starkes 2566
▁schauern 534
▁nas 3144
▁zäher 1678
▁begann 3368
▁saale 2652
▁kilometer 2433
▁nochmal 942
▁regenband 1644
▁erfurt 3270
▁siebten 1490
▁mittelwert 3341
▁wunder 1802
bl 1737
▁fla 2487
▁fäll 419
fang 1774
▁mildesten 2605
▁lokale 2403
▁wur 2480
▁stürmisches 2885
▁entsprech 1083
▁dauert 2653
▁tallagen 3003
▁schwere 945
gebiete 1387
uni 1270
wir 2463
▁mass 2482
lagen 1188
▁dehnt 1970
mittag 388
▁jahreszeit 1952
▁überigen 3259
▁sobald 1833
▁polare 3640
iert 1380
▁sorgen 1184
▁wand 2147
▁wes 2479
▁wasser 2285
sar 1963
▁umfangreichen 2975
▁herr 1330
▁einzel 373
iefs 1561
▁gewittrige 1196
▁dreiundzwanzig 1057
▁spätsommer 2355
▁tatsächlich 2257
▁behalten 2154
▁neunzehnten 1723
deutschland 538
▁bed 1522
▁schauert 1381
▁gere 3159
▁rei 1812
▁inform 2500
vorland 3295
mezzo 3350
▁liebe 592
wochenende 2253
▁unbeständiger 2375
ät 1746
▁gewitterfront 2321
▁heiße 1670
appt 3047
pomm 1690
▁gebietsweise 429
wa 2462
▁frühjahr 2596
sgebiet 3092
▁gest 1643
▁entwickeln 930
nach 1688
▁berlin 1602
▁ch 1630
▁regenschauer 745
▁trifft 3373
▁ins 1271
▁halten 1094
▁inseln 2060
▁auffrischendem 2960
sterland 3456
ä 33
▁kommende 2871
iebt 3151
wehungen 1249
aus 683
▁trü 1256
▁nebelfelder 730
▁nied 3017
▁höchsttemperatur 2612
▁oder 250
▁verstärken 3006
▁ext 2096
▁atlantiktiefs 1948
▁wolkenreicher 2818
▁nennen 2747
▁wechselhaft 529
▁bewölkung 2027
▁witterung 3590
▁front 3309
▁im 60
▁wärm 603
▁au 62
▁kühlerem 3344
▁rheins 1425
tief 1125
ritann 1392
▁müssen 2054
▁locker 1720
räglich 3305
▁uh 3117
undert 2750
kbar 1051
▁register 3285
ez 1063
tsweise 428
▁sonnentag 3346
ichten 806
▁vierunddreißig 2191
▁plusgrade 1524
▁damen 2057
ren 713
mitte 2562
▁becken 3314
▁regionen 1002
lieben 3078
▁beglei 1843
öh 1220
▁grenze 1976
▁lokal 1569
▁spür 3337
▁davon 1349
▁atlantik 939
▁oberrhein 539
▁witter 3016
▁ich 778
ehende 3203
▁gro 1038
▁dar 1892
▁allerd 667
▁misch 1115
▁oberp 2881
est 180
▁frühlingswetter 3472
▁verd 1831
llt 2509
ull 622
chen 924
over 3083
▁ent 1606
woch 2140
▁zwischend 1599
▁gefrieren 803
gem 3062
▁mä 269
▁jederzeit 2377
▁zumind 1131
echien 3277
▁lö 1827
iger 380
▁rande 2992
erwolken 1471
▁sie 224
lauflösung 2225
eien 1093
reiche 2088
esch 822
▁also 702
kreich 3073
▁übergehen 2965
windig 3361
ngen 2271
▁gebie 403
teils 2953
▁spürbar 3646
ig 69
gef 2350
▁höch 1017
▁deut 704
▁gewitterträcht 3514
▁hitze 1186
▁sternenkla 2955
▁norwegischen 3474
b 7
▁gra 104
lenburg 2135
<unk> 2
▁momente 1798
▁plat 3298
ikt 1544
m 18
▁ansonsten 830
▁übermorgen 2828
▁führt 2650
▁setzen 3132
▁landesteile 2391
▁tiefsttemperaturen 2642
▁verkehrsbehinderungen 2683
sent 2879
▁st 142
▁gefrierendem 2090
▁nordstau 2503
▁sommer 1048
▁besteht 1613
▁nordeuropa 1823
▁übrigen 870
▁wetterlage 1595
▁folgen 1463
▁verhältnismäßig 3637
▁zehn 521
reicher 2003
▁bekommen 1453
▁flu 3378
▁gar 2155
▁wälder 3606
▁mark 2483
▁beim 2076
▁bestehende 3366
▁wechselha 495
▁schüttet 3566
▁wetterberuhigung 2675
▁zwanzigsten 2002
▁verdichten 2024
▁minus 315
inie 2806
▁sternenklare 3584
▁herren 2083
▁schn 478
▁auffrischender 3504
▁stro 2816
▁schneeregen 1112
▁tage 1355
▁tiefe 2335
▁mind 3147
▁verkehrsstör 2980
iemlich 1165
▁donner 346
▁seit 1881
▁startet 1914
▁stürm 426
▁überschwemm 1686
▁mittwoch 383
at 268
ehmen 1671
▁sachsens 2611
urch 623
▁allmählich 1312
▁mittelgebirgst 2368
▁dreiunddreißig 1987
▁entsprechend 2386
▁letzten 2016
▁schneegriesel 2259
▁wolkendeck 1645
ng 424
stra 2475
häl 235
ähe 596
ähr 711
▁frühl 1571
▁lag 3236
▁hol 1167
▁tau 1025
▁zeit 472
▁mittw 382
ive 1785
▁lü 2517
▁herankommt 2900
▁nun 266
onders 712
tig 2278
▁osthessen 3310
tal 1965
▁bayerischen 1395
▁schneefall 866
ad 2031
▁mittlere 3498
▁drei 299
▁einhunderts 3029
▁schauerwetter 3256
▁vergleich 3499
▁luftdruck 800
per 331
▁nasskalt 2413
▁rieseln 2439
▁normal 2628
▁intensiv 3000
▁versch 1706
▁wolkenlücken 1409
▁deshalb 1711
lastung 3205
▁durchaus 1493
lä 473
▁mischung 1122
orden 2778
▁zehnten 1773
▁hur 3178
▁gel 739
▁föhn 1639
▁mittelgebirgsraum 2660
unddrei 880
gramm 3421
▁kaltes 3370
▁süden 163
▁südhälfte 882
▁landesteilen 1433
▁unwetterwarnungen 1289
▁schl 1129
▁münchen 3536
strömung 3562
▁anges 2811
▁mäßig 286
rtlich 504
▁ungetrüb 3437
▁kom 3192
orgt 555
▁übernimmt 2415
▁anhaltende 2941
▁aufklaren 1852
▁abschnit 1328
▁klarer 3331
▁wetterbestimmend 2438
▁zentralen 3423
reck 1757
▁wochenbeginn 2888
ord 86
▁häuf 688
▁kräftig 524
lin 1545
▁mittelmeerluft 2934
▁tür 2493
▁winterwetter 1429
▁schauernähe 2582
▁ändern 2214
▁phas 2847
▁bl 242
poten 1808
▁guten 556
nders 693
▁betrifft 3657
▁sowohl 2543
öen 278
▁glatteisgefahr 3466
▁weite 1767
▁jul 895
sse 1962
▁sa 2284
fur 2267
▁regnet 292
bwohl 2689
▁allmäh 1297
▁relat 1408
▁drängen 3603
stell 1253
wanz 205
▁harmlo 2258
nung 1873
werten 2958
▁südens 3258
nungen 956
▁entspannung 3404
▁überschwemmungen 1799
land 147
▁schneever 1236
fal 1401
▁frankfurt 2936
rikan 3598
nden 3136
burg 1159
▁öfter 2567
▁stu 3245
▁gipfel 2075
▁vollem 3352
▁grauer 3214
verteilung 3599
schig 3222
▁auftauchen 2970
▁könnten 2886
▁abs 1191
▁winterwochenende 3397
achen 2300
▁da 79
▁gu 427
fft 2444
▁aktu 2423
▁ausgedehn 3005
▁gute 2873
▁strengen 3447
▁ster 995
▁stürmisch 502
▁längsten 1918
eswig 1204
▁küste 736
▁su 2737
▁weiterziehen 2866
▁warm 827
hangen 1579
▁frostigen 2353
▁dicht 1232
▁wegen 1147
▁island 1819
▁trockenste 2868
srück 2459
ellen 2694
▁be 322
gegeben 3334
eil 140
in 123
▁unsere 3306
▁passiert 2238
gegensät 2251
▁schneere 1096
▁vertreiben 3638
tt 1373
▁auflöst 2836
breitet 435
▁irland 2248
meer 1032
urs 2808
▁starker 1045
▁quadratmeter 2261
▁sonnig 590
▁liter 1900
tes 1876
wert 3100
ucht 1548
▁hochlagen 1601
▁südöstlich 3469
▁dichteren 2896
▁ausgeb 3266
▁griechenland 2256
▁flocken 1530
▁ruh 845
▁tagesverlauf 1616
▁gewittriger 3410
▁hochdruckwetter 2007
ein 68
schnit 1308
▁wahr 960
▁erdru 3271
uen 1967
▁direkt 1801
▁heran 680
inav 992
▁auffrischen 2116
ben 148
▁driften 3604
▁pfingstwochenende 2997
▁bodenfrost 1260
▁sech 371
▁lichtbl 2023
▁gewitt 1028
▁ein 102
lant 2506
▁erwärm 2834
▁wolkiger 1361
steigen 3140
▁wetterbest 2316
▁vereinzelt 535
leibt 3392
▁ist 168
▁siebzehnten 1775
▁unterschied 848
▁geschlossen 3481
anz 165
haar 2699
▁überigens 3633
▁kalten 2004
auchen 2801
▁dagegen 921
▁größ 1539
▁tiefland 2854
▁frischer 578
▁pf 2071
▁eintausend 3213
▁kräftiges 2198
▁östliche 2912
▁vorpommern 1736
▁glättegefahr 1849
egel 2392
▁strahlen 2613
▁meeresluft 1786
▁allenfalls 2898
▁besser 2019
▁spätsommerlich 3528
▁norddeutschlands 3371
▁beispiel 1988
▁minusgrade 1835
▁weiteren 2186
▁ausgeschlossen 3635
ich 59
äll 320
▁sechs 508
▁ver 212
rie 1874
pen 262
▁nehmen 2150
▁lücken 1321
▁entla 1302
rz 1315
ckar 2540
▁heftige 990
▁niederrhein 836
zt 2722
or 52
eszeit 1888
▁tur 2491
öhnlich 2014
ischt 2525
▁harmlosen 3520
ick 721
▁nacht 134
eln 773
▁nordseeküste 1383
▁regnen 710
▁südostwärts 3362
▁vielleicht 1073
▁ander 2938
▁klein 1391
▁profit 1856
▁südwest 588
▁kühlerer 2087
▁entwickelt 2601
iter 1872
▁frühling 2624
▁ankommen 3232
ationen 3517
▁einsch 2303
mm 209
vorhersage 259
▁her 431
▁gefrierpunkt 1255
▁englands 3438
▁rügen 1435
ria 3495
▁viel 293
▁westfal 1997
zieh 1182
▁geworden 3513
▁winde 1905
älzer 3275
▁oben 2799
▁setzt 1345
▁wahrscheinlich 968
▁äh 915
▁regeng 3238
▁weihnachten 3550
▁zwölften 1841
▁höchsttemperaturen 1574
zen 1969
▁mei 270
ühl 3111
▁hessen 2772
böen 408
ppt 2625
▁zöger 2776
oßen 3084
furt 2427
▁je 927
▁nordital 3200
▁vereinzelte 1921
▁zusammen 1541
▁t 70
e 10
▁sehr 525
▁rost 3116
chenland 2216
▁uckermark 2252
▁regens 3239
▁häufig 884
▁atlant 681
echnet 684
fern 2445
▁ausbrei 1519
▁kühlsten 1990
na 1628
▁klingen 2383
▁verkehr 1984
best 817
▁hochnebelartig 2999
▁in 87
▁schönen 541
▁vorpomm 1704
le 1742
▁wenig 637
▁stürmischer 1385
fel 451
sen 458
▁sonntagnachmittag 3644
▁bet 1973
frei 1438
zone 1397
▁durchziehen 3367
europas 1609
▁wo 694
ra 89
ckermark 2235
▁schön 1772
▁verschärft 3585
▁gewittert 2173
ennen 2728
▁produ 3433
etter 133
▁türkei 2669
▁angenehm 1855
asser 1778
▁feu 1008
wie 476
undzwanzig 248
▁winterlich 1848
▁osteuropa 1565
▁fünfhundert 1989
▁freundlicheres 3363
ießt 1176
▁schneeflocken 1466
öhte 3422
▁kräftigen 973
▁lenkt 1082
front 1605
▁aufgeh 3273
ch 39
▁alpennähe 1327
▁abschnitte 1339
▁wen 444
▁oberfran 2352
▁mittelgebirgs 2367
▁dabei 353
▁einem 961
▁spä 480
▁werden 375
▁kritisch 2654
▁montag 417
▁schwer 2180
ßerd 1585
▁sy 1814
▁ungewöhnlich 2414
regen 652
▁heut 3179
▁jeden 1109
klich 1741
▁verlauf 2537
eine 1166
omm 328
ind 239
älern 1484
▁vielen 1562
▁profitiert 2241
ug 2279
▁ledig 3465
▁bö 1203
▁morgenstunden 3225
▁ei 665
▁stellt 2573
▁südosteuropa 2201
zieht 2106
▁azoren 1883
▁klasse 2929
▁gibt 296
▁verwandelt 2408
weiten 2814
▁kälte 1427
▁kälterer 3401
▁reichen 1442
▁herrlich 2110
▁gilt 1803
io 3068
▁unwetterwarnung 2013
▁wolkenfelder 1041
▁auflösen 2330
▁hauptsächlich 1684
▁dänischen 3464
iegen 3150
▁hochnebelfeldern 3454
▁einige 601
▁vereinzel 517
vember 1007
gesch 1869
▁stat 2522
lus 374
lo 994
▁franken 2221
egen 674
▁gegensä 3390
▁erle 2328
▁kaltfront 2369
▁rut 3263
▁stärksten 3449
▁weihnachts 3551
scheinlich 965
nee 1897
▁gelangt 2169
▁manchmal 3417
▁weihnach 2551
▁kalt 696
▁landwirtschaft 3008
▁platz 3639
meert 2360
▁liegt 856
▁nie 2746
icke 1776
ers 217
reme 2496
▁funk 1977
europ 558
▁sternenklaren 3486
▁besonders 717
▁klaren 1992
▁ges 1550
▁ihr 2891
um 581
reifen 3226
ituation 2497
▁freundliches 883
▁gleich 1378
▁einstellige 1642
▁fre 214
nlich 851
▁gipfellagen 2422
▁zwischendrin 2404
▁bildet 687
hl 265
▁sah 3129
ung 249
▁durchweg 2591
ßt 2048
schen 530
▁tauwetter 1498
ahl 2263
▁holsteins 3418
▁feuch 1261
▁schlus 3175
ieselt 1334
▁anderes 3582
▁kräftigsten 3348
▁beeinflusst 2247
▁teilen 1170
▁manchen 2211
rocken 3257
▁tauwetters 3439
▁komm 385
▁läng 460
▁einen 500
▁selten 1465
ück 982
▁bayerischem 3424
ah 532
uation 2461
▁einher 2791
▁gerin 2588
▁unten 2826
men 1113
rän 3304
▁vorboten 3264
▁warmer 2575
▁nordmeert 2502
▁moment 3462
▁rothaar 3010
▁verwöhnt 3461
▁strom 3032
▁änderung 2215
▁west 445
ocken 1505
▁form 2760
▁momen 1677
lich 108
▁schwül 1412
▁ 36
boten 3048
ach 84
▁umfang 1933
▁herbsttag 3413
halten 1124
▁meter 1080
▁sommerliches 3503
▁lange 2208
▁geringen 3360
len 2704
ehnt 1903
▁emsland 1335
▁geschneit 2969
▁kla 1055
▁trocken 329
▁polen 1485
cklenburg 2181
▁stärker 1794
▁einstell 3209
▁überschwemmungs 3463
▁längerem 1719
▁f 61
▁trö 2287
▁dreiundzwanzigsten 1564
▁ruhrgebiet 3389
▁mitunter 744
▁durchwachsen 1528
erkbar 1053
▁skandinavien 1067
▁sylt 1956
ontag 410
ema 2314
▁kälter 949
▁kräft 276
einseln 3168
▁angst 3233
ell 1199
▁mo 1316
▁nordatlantik 2684
fronten 2878
x 29
▁mö 561
▁aktuell 2663
▁gewittern 546
▁re 93
▁trockenen 2867
▁allen 643
▁betri 3490
▁löst 2313
▁zwischendurch 1949
enken 3118
rübt 3444
▁alles 1830
▁lagen 1252
▁rein 2829
▁nordatlant 2672
▁zugspitze 3628
▁nordseeinseln 3497
▁wochen 559
▁beginnt 886
▁gewinnt 3587
kü 913
tik 2043
and 583
ritten 1727
äu 750
▁m 49
▁unbest 867
mäßig 3596
▁luftmassengegensätze 3450
ock 2039
ün 732
▁bei 301
▁hohem 2111
▁mittelgebirge 1386
▁frühlings 1793
▁sollte 3524
orol 2751
flus 692
▁breisgau 811
▁wärmsten 1925
ütlich 1810
ehm 788
geben 2194
▁entsteht 2966
▁wolkenschleppe 3627
▁isar 2052
▁doch 1091
▁größer 2948
▁dunst 2429
▁nasse 3607
▁sonniges 1525
▁unbeständiges 1158
▁z 75
ere 372
age 227
den 219
ust 1126
▁einmal 1699
einflus 1890
▁vierundzwanzigsten 1659
▁kräftigem 1664
eb 187
sturz 3015
▁bayern 737
▁daneben 2671
▁flachland 1733
▁gen 1406
▁trockenheit 2190
▁bodensee 1462
▁oberhalb 1420
ehind 2505
▁erstreckt 1959
▁änd 863
wegen 2141
felder 543
bay 1292
▁größtenteils 2976
▁ausgesch 3267
erungen 2282
▁der 77
▁stren 1555
▁temperaturgef 3322
geräum 3408
▁nämlich 2022
er 38
▁ableger 3039
eich 1635
▁bal 1444
▁tiefdrucksystem 2682
gezogen 1709
▁heftig 1529
y 30
▁natürlich 2254
imal 2037
ischendem 2951
▁schneeregenschauer 2609
▁frühlingshafte 3505
▁mittel 465
▁gefallen 2514
▁juli 904
eutung 3265
wechsel 2045
▁allgäu 1171
▁tief 257
▁ende 2142
▁gipfeln 3501
▁hä 671
ringen 3329
zeichnungen 3600
▁südbayern 3207
▁abges 1358
eht 273
einfluss 795
▁schwachen 2857
▁gerät 2363
▁alpentälern 2547
▁ergie 796
▁kühler 497
▁wintersp 3396
▁grie 2156
▁tun 1891
▁gepäck 2657
urm 391
▁schneien 1102
ue 2721
nord 2710
▁hagel 1447
ver 794
scha 2309
temperaturen 1329
▁nachlassen 2511
▁wir 145
ieder 190
pro 3085
▁hochwassersituation 3493
iv 1050
▁tornados 3592
▁größten 1945
ial 1806
zo 3101
▁sein 551
▁steigenden 2931
▁gott 3160
aufpause 2993
▁kleine 1850
▁nordwestlichen 2895
rauen 3201
▁italien 2255
unter 617
elauflösung 2266
rängt 2851
orgen 116
änd 574
▁eins 2788
▁nähert 1860
▁zähem 3426
▁etw 246
▁weitere 1415
▁angeneh 2015
▁regenwetter 2518
agel 1446
▁dann 195
▁schick 3176
▁neunzehn 876
▁einiges 2790
▁überwie 769
▁sturmtief 1418
▁warmluft 1779
▁dort 370
mer 488
▁wirklich 1762
ech 208
▁auflockerungen 2245
▁kühl 319
▁me 751
▁überschw 1648
▁himmel 753
liche 1212
▁schott 1475
zent 2723
ne 98
▁nordrhein 1979
▁schneeschauern 3407
reichen 797
ner 330
▁führen 2972
▁südwärts 2787
gr 1960
ge 398
▁achthundert 2348
▁begrü 3369
▁luftmassen 1598
▁wetterwechsel 2172
▁bergen 679
beruh 2508
▁schwerpunkt 2648
▁dre 1748
▁stra 1323
▁nächste 1205
▁abend 283
▁kiel 3190
▁bayer 1303
▁dauerfrost 1672
dar 3054
fan 630
reiches 2890
stärke 1864
▁gefähr 1479
lö 1440
▁saar 1634
ichtet 3163
▁krit 2298
son 804
▁erstreck 1922
▁sommerliche 1851
▁zweistellige 1916
agen 475
rik 3088
▁entfern 3451
ale 2520
ehinderungen 2673
▁könnte 1663
ran 892
<bos> 4
▁frühlingsha 2118
schle 3223
hnach 2447
▁reißt 2410
am 277
▁gelegentlich 967
▁kühlen 2187
▁ziemlich 1168
▁frostige 1998
▁folgenden 1732
▁siebenundzwanzig 1422
tsommer 2338
▁währenddessen 2911
▁kna 1894
▁mittleren 2419
▁schein 506
▁hell 3372
etz 522
gegensätze 2262
▁hochsommer 2229
spiel 1946
▁roten 3479
gsam 754
▁b 53
olar 3082
ri 2040
ster 1636
uss 621
undzwanzigsten 549
▁einzelnen 1133
▁länger 701
la 94
ärm 584
▁heranzieh 1917
▁unwetterwar 1155
▁achtzehnten 1931
l 17
▁erwärmt 3574
▁p 240
▁angesagt 3569
▁regenwolken 824
▁ruhe 3387
▁größere 2230
▁ändert 1001
▁gerechnet 686
▁temperatur 355
▁stü 422
süber 888
bald 1804
▁deutsch 891
▁machen 718
▁wurde 3002
▁ho 970
▁breitet 1069
urger 2809
▁kommt 498
▁großen 2928
▁ra 890
indet 2541
▁dich 432
▁neb 289
tte 818
z 31
doch 2131
geräumt 3651
▁wolkenband 2171
s 24
is 73
▁württembergs 2957
▁dro 2734
▁schwächer 2249
ause 2308
▁näh 1638
nähe 727
ürm 3112
dru 3055
▁abkl 2556
a 6
▁dichter 593
▁feuchter 1854
her 771
▁auto 2763
▁daraus 3185
▁mildes 2921
▁o 112
frankreich 3494
▁oberschw 2574
▁ohne 2646
▁wollen 2593
▁ostseeküste 1770
▁wol 634
▁glatteisregen 2117
▁schwarz 1172
programm 3597
▁kal 571
q 22
▁nebels 2865
schied 828
▁gewittrig 2930
▁gewarnt 3030
sommer 3093
▁intensiver 3535
▁gesam 1887
antw 2512
▁ruhigen 3388
▁nachmittagsstunden 2195
▁gehalten 3161
ziehen 1536
se 97
gebiet 975
▁orkantief 2599
nt 486
▁seiner 2584
▁nasskal 1942
▁wa 3141
üd 99
df 2264
▁zweiunddreißig 2349
▁überg 1763
▁holstein 1197
tausend 2718
▁westfalen 2030
▁westlich 1836
▁schneit 548
▁tiefdruckzone 1937
▁zurückzieht 3416
▁freundlichsten 1225
▁schwach 295
aden 1370
ta 3094
schaft 2656
▁präsentiert 3589
▁seltener 2113
▁lausitz 947
hen 2036
tter 3095
▁umfangreiche 2633
himmel 3065
▁tja 2289
▁unterschiedlichen 1018
▁zeigt 755
▁gebir 3333
▁hier 285
▁feb 1070
▁riesel 2323
esgaden 3162
öhnt 2935
▁ungestört 2622
▁vorsicht 997
▁zähe 2161
komm 954
bare 3050
örm 3108
▁atlantikluft 2011
üssen 1586
▁nachmittag 463
▁flusspegel 3541
raus 2504
▁tats 2159
▁etwas 271
▁heiß 772
en 37
▁wer 308
▁fulda 3614
▁sofern 3301
form 2446
▁einundzwanzigsten 1698
ischem 2318
▁beieinander 1357
▁näch 416
▁druck 3124
os 2038
reta 3182
▁keinen 2620
an 114
▁abziehen 2343
teilung 2018
fahr 953
d 9
▁kommen 733
ischend 1481
klar 940
ro 161
eis 1696
gs 341
ckerungen 2234
▁kurze 1537
▁nahe 1540
g 12
▁phasen 3036
schn 1234
▁schleierwolken 1501
▁trockene 1600
ieß 983
▁ste 467
▁hat 834
sät 2138
weit 3237
to 2717
west 390
▁hochdruckgebiet 2370
▁nordosteuropa 3379
bei 345
uh 672
ungen 447
▁sturmböen 462
▁ebenfalls 2102
▁ausfallen 1298
▁land 568
▁anfangs 748
▁erfahr 3269
▁noch 137
▁oberschwaben 2678
▁verw 1651
hein 336
us 167
see 244
▁trotzdem 2246
▁diesen 1514
▁ganzen 1100
▁thürin 1432
▁nordat 2501
vorhers 258
ckt 3294
▁trennt 3565
▁temperaturgegensätze 2560
schnee 1899
▁förmlich 3615
▁begleiten 3476
▁luft 312
▁schnee 207
ht 1006
ppe 3448
▁einunddreißig 1554
▁ersten 1276
▁brand 1317
▁lo 608
▁rauf 2010
▁starken 946
▁unwettern 1999
hälfte 238
▁regengebiet 1322
▁kein 1476
▁ma 647
▁für 177
▁se 606
üb 633
▁tiefdruckgebiete 1726
▁balkantief 3471
▁bereits 1299
▁unwetterpoten 1839
brei 1467
▁prä 2542
▁ung 1482
tags 3242
▁polaren 3641
uar 1090
▁hochsommerlich 2990
▁eine 619
▁tiefstwerte 3500
hessen 2700
▁beschäftigen 3650
▁lan 724
▁bessert 3452
▁anhalten 1320
spegel 3445
▁stürmische 716
geteil 2967
▁brei 570
▁tieferen 3307
▁glatt 1004
ehen 676
▁gefährlicher 3436
▁nordfriesland 1394
▁mains 1782
▁mancherorts 1229
▁gehen 1975
erst 2281
gegen 1993
▁anhaltend 2109
▁sommerlichen 3409
ächen 2555
aben 493
rig 2456
▁unbeständ 871
wärts 1198
▁nord 88
sischen 1875
▁berchtesgaden 3320
▁eisregen 1788
▁südeuropa 3206
▁vielerorts 1075
▁gew 2168
bt 172
▁saarland 1795
gra 1210
o 20
▁dienstag 434
ström 2743
ha 470
▁bucht 1588
▁nordmeer 1824
▁schö 520
▁sturmstärke 2872
▁warmes 2598
öl 392
hregen 1961
au 113
ingst 2400
samm 1506
▁eben 929
▁höhen 2594
▁orkanböen 1287
▁abgezogen 2344
▁gewit 176
▁flach 1614
chten 1510
erseite 3290
ifft 3070
▁linie 2813
▁fünf 311
▁beeinflussen 2974
▁nieselt 1754
dig 3053
▁no 996
▁ohnehin 3658
▁trüben 2937
stälern 3139
ßer 980
▁angen 1353
▁gewitterschauer 1410
frost 1035
▁ober 468
▁zweigeteiltes 3645
ternach 2286
▁nä 1753
▁können 547
▁quad 2222
▁seinen 2001
▁südlichen 1350
uld 2910
▁wolkenfront 3248
em 146
ket 3071
▁erleben 2658
icht 185
▁matschig 3609
▁stab 1828
▁weiterhin 677
▁nordöst 1319
▁rheinland 1927
▁vier 332
zeit 819
▁beziehungsweise 2260
▁mon 3146
▁strömung 2909
▁hochdrucklage 2903
▁peuap 2848
ir 485
klungen 3507
▁verm 2331
▁normalen 3009
▁prozent 3432
▁traum 2494
▁württemberg 1861
▁danach 1534
wei 129
▁gerade 2200
▁dien 433
▁nordischer 3198
schie 741
▁südosten 364
▁geht 657
▁verschn 2839
▁stürmischem 2576
▁vorübergehend 1336
▁aufgelockert 2641
fter 1578
▁woche 708
▁wi 105
▁unserem 3381
stand 2742
▁ger 607
assersituation 3385
▁gewitterträchtigen 3659
drängt 3057
▁jedenfalls 1939
▁milde 928
▁v 76
ald 689
immt 775
achsen 852
pr 1114
▁dieses 1138
▁qu 1163
▁schleswig 1208
usitz 943
▁en 489
▁niederschlag 2945
eutschland 229
▁aufwärts 2835
▁ost 303
▁posit 3035
▁wetterchara 3253
▁lenken 2218
ul 793
▁chanc 1734
▁auf 199
▁tag 182
schiede 1669
▁einfach 2304
acht 2299
▁ganz 437
esamt 1019
wit 174
ärk 1258
tbl 1966
▁manch 1174
▁schneefällen 2199
▁um 777
▁zei 600
▁von 192
▁dieser 860
atur 335
bst 1022
derzeit 2311
▁damit 1116
▁schwacher 523
pel 1294
▁fällt 421
▁übergeht 2407
▁anhaltender 2393
▁kühleres 3343
▁herausgegeben 3577
▁wenigstens 2204
immend 2356
▁blicken 1596
üh 3110
▁sauerland 1290
▁stunde 2817
▁wetterdienst 932
▁entweder 3391
▁nordosten 413
▁nordsee 363
wachsen 1508
▁bringen 618
▁stoßen 3247
▁hängen 2899
▁sodass 1765
▁nichts 1714
▁südost 613
▁ge 124
▁wei 294
▁grad 107
▁atlantikhoch 3400
▁beg 678
▁ähnliche 2604
lage 1371
▁einzug 3626
▁kleinen 2615
▁dicke 2472
▁hochnebel 986
▁wolkendecke 1685
weden 2914
lat 789
▁bestand 3365
▁pegel 2846
▁gefroren 2202
ck 225
erreich 2732
altet 3244
eide 2740
pfen 1146
▁dänemark 1862
▁halbwegs 3621
▁kölner 1951
▁norwegen 2629
▁frei 340
ometer 2273
▁vie 267
▁geringer 3553
gehend 784
ges 1200
▁südskandinavien 2302
ießlich 2219
▁he 714
▁nordwesteuropa 2586
▁autoscheiben 3661
aten 3046
▁frost 471
▁lang 2077
▁bill 3154
▁kann 399
▁vierhundert 2558
▁steht 2880
fran 2034
chtig 2837
kord 3072
iveau 2236
stem 2477
▁islands 3475
▁uhr 3602
▁chance 3468
auf 2306
üt 2726
▁wolken 144
▁azorenhoch 2411
▁fünfzehnten 1717
▁situation 3131
ratmeter 2163
▁bay 631
▁wunderbaren 2635
▁tiefst 2072
▁letztendlich 2417
eu 95
echsel 439
▁gesamten 1958
für 1144
▁dun 2283
küste 1175
klus 2703
ö 34
▁allem 316
▁mil 423
▁alpen 264
▁beginn 1495
▁unterschiedlich 1531
▁vo 554
▁treten 2766
▁wein 2744
▁zeigen 1059
h 13
cht 204
▁schwüle 2618
▁entfernt 3653
▁knack 3482
▁raum 1724
▁genug 2616
▁dünn 3559
▁herbst 1134
▁verliert 2840
▁wieder 222
▁profitieren 2630
▁begrüße 3648
▁sechsundzwanzig 1360
▁landes 1840
rei 121
▁inter 2059
▁mild 937
▁marke 2666
ersituation 3291
landen 2820
▁anhaltenden 2394
▁deutschland 305
▁dick 2145
▁kurz 1728
▁wün 821
▁entwick 878
ert 366
▁verantw 2539
▁verschwind 2021
▁bezieh 2189
pause 2713
▁luftmassengrenze 2232
üren 2466
▁ehesten 1363
olken 136
▁wetterdienstes 977
▁blä 1189
ierende 3254
▁erste 1224
▁schweren 1986
esluft 1756
▁nordostwind 1845
▁erz 926
unde 2749
bur 1123
▁blauer 3508
▁tschechien 3509
▁warnungen 1488
▁sollten 3525
▁zentrum 2224
roffen 2529
▁deutlich 709
▁ohneh 3512
it 78
iesel 984
▁achtundzwanzig 1384
▁knapp 2121
estens 3230
▁flus 2488
ieh 326
▁fol 1024
▁nordfrie 1233
▁aus 196
▁peuapeu 3037
▁vorher 2325
▁wunderbar 1955
ieb 3149
▁ex 3383
▁heranfl 2901
ahr 605
kter 2450
war 615
▁ostfrie 2185
▁viele 591
▁hochw 1991
deck 1281
▁bedeutung 3441
▁alpenvorland 3308
▁gange 3611
▁niesel 1885
ub 2720
▁bringt 662
▁abschwächen 3038
unkt 1153
▁bild 668
▁plus 496
▁lockeren 2374
▁fünfundzwanzigsten 1521
▁zuvor 2821
▁glätte 917
▁teils 479
▁süddeutschlands 2920
▁neunhundert 2572
▁fünfundzwanzig 865
▁niedersch 1332
ien 309
▁blitz 1326
▁sondern 2333
▁befindet 3315
dehn 2690
▁kau 842
▁lockern 1844
gend 2056
▁s 41
▁schau 3173
▁tshir 3617
▁wolkenverhangen 1627
▁höheren 1219
▁schne 181
▁ungemütlich 1858
hund 912
licher 1477
lücken 1403
▁adria 3561
▁sinkenden 3428
▁wolkenschle 3249
rechend 2923
▁dementsprechend 3643
▁siebenundzwanzigsten 1713
chtesgaden 3276
▁k 81
▁dank 1533
▁ostfriesland 2649
▁dom 3126
▁sieht 1325
uf 357
reicht 735
▁sehen 1443
▁leb 2812
▁fü 139
▁februar 1087
▁nordost 758
risiko 1583
▁reich 2050
▁verändert 3575
▁fr 279
all 327
kandinav 993
▁neckar 2564
▁fün 304
▁zent 1269
gie 757
▁niederschläge 1434
▁konn 2418
▁acht 393
▁kühlt 1708
▁an 127
▁steigendes 3411
▁nordöstlichen 3427
▁hin 875
▁lokalen 2952
▁windgeschütz 3547
▁großbritann 1431
▁ö 407
▁orkanartigen 2939
rit 1052
ber 101
ieren 1557
▁eingel 3210
▁strömt 810
▁nebelauflösung 2339
▁temperaturen 387
▁unwetterartig 1259
▁fern 2758
▁gelichtet 2516
▁mengen 2984
hoch 1341
bert 3208
▁sonnige 1411
n 19
▁dreißig 791
aup 1515
▁als 492
▁anderen 2107
▁tropfen 1190
immel 742
▁höchst 1245
▁samstag 368
▁werte 699
▁gep 2312
▁frostfrei 1487
enähe 2471
zeich 3104
▁rauskommen 2397
▁mitternacht 2436
unterschiede 1716
▁tiefaus 1015
▁aufklar 1072
witter 1517
tige 3097
▁paar 442
enkt 2729
▁gem 3228
iges 752
▁fließt 1215
tl 2042
älle 644
▁dez 1066
▁freundlich 216
▁hinein 3393
kandinavien 1005
ten 158
are 3045
▁weht 352
▁richtung 347
▁scheinen 2578
▁zwischenhoch 2877
▁versorgt 3549
stär 2478
massen 1580
▁ostwärts 1451
▁hö 719
mal 602
sg 625
▁schickt 3619
▁wald 1037
chara 3122
reten 1978
bringt 3049
▁thema 2390
nebe 2165
önn 511
▁regenmengen 2026
▁apr 1128
▁berge 3319
▁oh 2167
▁siebenten 2884
de 513
▁brä 2753
ger 1036
▁brin 436
▁teile 1556
isiko 1576
▁uns 253
falz 1790
geb 406
uer 682
▁schwarzen 2933
▁windgeschützten 3660
▁zweiten 1238
▁temperatursturz 3323
▁niederlanden 2894
▁bevor 1031
glich 573
tet 324
essen 1821
dem 1503
▁landwir 2585
▁weitergehen 3313
v 27
▁pfalz 1908
▁bilden 1240
▁diese 660
▁verwandeln 2237
▁akt 2146
▁zurzeit 2904
llem 3215
endem 2073
erseits 3289
un 80
▁nordrand 3197
pp 1582
▁freundlichem 3287
tag 138
▁neuer 1239
▁produz 3652
▁begleitet 2025
▁nordrändern 3624
aut 3217
lässt 2883
re 74
▁erneut 2647
▁mosel 2108
me 550
on 58
verlauf 1615
▁auflandigem 2535
▁nachts 2170
keit 2451
▁laue 3321
▁januar 1098
▁sozusagen 3642
▁östlichen 976
esteil 1275
▁schnell 1559
al 141
▁winterliches 3477
▁pos 2845
▁gefahr 1761
nis 2709
▁heranzieht 2122
rück 2274
▁stre 2815
▁waldbrand 2927
▁tiefdruckeinfluss 2104
▁überquer 1518
▁hoh 1390
mlich 1023
▁gefriert 2590
▁richtiges 2546
▁nordrä 3196
unddreißig 887
▁ir 1972
▁sieben 474
ll 106
ften 1011
cke 2843
ttember 1629
weise 149
▁samstags 3326
▁zustande 3629
erung 1747
▁tiefausläufers 2661
▁zunehmend 1061
rhein 430
▁morgen 119
▁nordische 2780
▁rostock 3601
▁regentief 3241
▁baden 1473
▁wetteraus 2315
▁entlang 1499
▁hartnäckig 2431
kal 1262
▁darüber 2243
▁reste 2783
▁nordhälfte 762
ff 2695
lassen 2062
nemark 1825
▁mittelmeerhoch 3420
▁ro 1879
▁tren 2765
▁brauchen 2978
▁heraus 2875
sb 2041
pfel 1691
▁hinweg 1722
▁kämpft 3567
▁zuge 2822
▁waren 2085
▁zahlreicher 2432
▁somm 1029
frie 1119
▁gering 2589
▁ostseenähe 2554
▁tauchen 1464
▁denn 1027
▁richt 263
ausend 2207
▁vom 685
▁pfingst 2421
▁tagen 509
▁la 351
▁quer 2469
▁kühles 2188
trop 1263
▁nachmittags 1046
ern 438
▁mitteleuropa 974
schein 464
▁spätsommerwetter 3529
▁bemerkbar 1062
▁abgesch 3311
▁dreht 1800
▁hohen 2398
▁eh 873
ül 1375
▁leider 1771
▁lockert 999
erisch 1632
▁über 175
ter 64
▁oft 1223
▁ganze 1280
▁haben 499
eits 855
▁lockere 2092
▁österreich 2913
entsp 3120
etzen 2580
▁herrlicher 2395
läufer 902
▁schon 404
▁bestehen 1527
▁gestreift 2956
▁tre 3170
▁fünften 1707
▁hochnebelartige 3534
▁westhälfte 948
zogen 1693
▁kurzzeitig 2963
▁küsten 379
▁neben 825
▁regen 130
▁em 1127
▁was 1376
▁verkehrsstörungen 3043
▁harmlose 2651
▁mün 2481
▁wie 697
▁ausgedehnten 3588
mark 1504
alb 1056
▁hun 2495
skandinavien 2276
lück 3077
des 3052
▁letz 1354
▁fast 1211
▁sonnenhoch 2358
▁straßen 1500
näck 2272
▁taut 3406
kla 2702
▁verkehrsb 2637
▁thüringens 3485
▁nennens 3018
zwanzig 247
▁best 635
▁fernsicht 3020
▁folge 2220
▁norden 166
▁sogar 868
▁geh 2486
▁regentropfen 1291
▁ne 376
▁trübes 2922
llen 466
zial 1809
▁steigen 1110
</s> 1
quer 1372
olen 1478
▁mai 1106
▁sichtweiten 2959
▁dage 916
anfang 3220
▁örtlichen 2577
▁überall 746
▁leichte 1928
▁eingef 3212
tsächlich 1655
vor 237
▁südöst 1758
▁dessen 3338
▁wäl 3143
isch 152
ze 833
▁teilweise 231
montag 2708
▁ausbreitet 1906
ende 469
▁dingen 656
▁graupelschauer 1789
▁letzte 1730
▁ihn 3356
▁morgens 2804
▁zweigeteil 3332
▁zahl 2293
▁dreihundert 2340
▁südwesten 389
▁vormittag 846
▁frühlingshaft 2644
bruch 3013
fangen 3364
▁erdrut 3636
▁geringes 3554
▁böigen 3419
▁polar 3300
▁quell 1306
▁verschär 2961
richt 2457
▁überwiegend 901
ander 1241
ängt 1509
▁nordmeertief 3545
nter 905
zehn 186
▁hochdruck 700
▁strecken 3570
▁gewar 2807
▁aussichten 944
▁intermezzo 3496
ungsweise 2239
gaden 3063
▁schneeverwehungen 1250
▁te 2468
▁dür 2735
▁süddeutschland 933
▁neiße 1865
▁bedeckt 1912
▁erzgebirge 952
britann 1400
ott 1404
▁milden 1996
lle 2798
ruar 1077
▁trübe 1366
▁kältesten 2619
beg 2351
▁inklus 2779
▁westeuropa 1660
gebieten 3380
trei 3096
ste 415
▁hochs 1454
▁vierzehn 577
▁strahlender 3555
wöhnlich 2046
▁sel 1264
▁mildere 1207
▁orkanartige 1367
▁ostsee 481
orts 780
▁gewittrigen 2925
gt 243
▁laufe 655
esam 907
▁aktuelle 3011
sten 65
entlich 2470
▁durchgezogen 2592
▁einzelne 412
▁ergiebiger 1721
▁or 820
fte 232
regie 2292
▁mittwochs 3330
amm 1398
▁verhalten 3279
▁jetzt 661
xt 1744
▁gewittr 1084
kei 2134
feld 2876
▁sei 3128
▁temperaturunterschiede 2347
▁beiden 2341
▁ergiebig 1244
▁sonntag 362
▁wetterdien 925
gewitter 1523
zel 272
▁atlantische 1731
▁gefährliche 2401
ximal 2047
▁wochenende 594
▁hatten 2008
▁ergieb 799
nebel 869
▁norddeutschen 3027
▁ham 2770
▁finnland 3021
▁einigen 844
▁schneeschauer 1034
liert 2706
▁mittelmeer 1206
▁milder 628
▁lie 411
▁unwetterartige 1428
▁vers 2536
▁wetterregie 2317
äl 200
▁seinem 3351
▁nor 1816
ischer 2526
▁verlagern 1673
▁vorderseite 3510
▁beruh 1279
st 45
▁dä 1694
▁etwa 1030
▁höchstwerte 2388
orm 2055
▁einer 1351
egt 3059
▁gol 3158
▁nachlässt 3216
▁nordosthälfte 1140
▁köln 2627
▁hochdruckzone 1930
och 92
▁nieselregen 2120
▁bleiben 1237
▁elften 1665
▁überfr 2827
▁wund 1752
▁südwesthälfte 1242
▁sp 409
▁deutliche 2371
ann 369
▁feucht 1573
kt 354
einander 1295
raum 1553
▁le 1701
▁könn 515
▁verschnaufpause 3034
▁mittelgebirgen 815
▁südwestwind 1214
▁get 3156
▁schauerartiger 2528
▁ausge 2534
▁rum 3261
▁ausnahmen 3533
▁tsch 2158
ücken 959
▁angenehmer 2981
▁c 3114
▁tschüss 2645
▁bleibt 306
▁schneefälle 1078
▁die 85
<eos> 5
lbar 3076
▁aufz 3272
stellen 2570
▁dreizehn 641
ing 1448
▁ange 2810
ebe 2830
▁zu 150
sstunden 2100
▁achtundzwanzigsten 1769
schub 3224
▁richtungen 759
▁sch 71
▁durch 658
▁grö 1377
▁rück 3262
▁samm 3130
▁temperaturniveau 2561
▁frankreich 1309
▁auffr 1705
▁e 805
▁wechseln 1455
sachsen 1964
▁württember 1683
rost 420
▁ausbreiten 1543
▁radarfilm 3649
ringt 2870
▁sternenhimmel 3455
▁nasskaltes 2634
▁vor 188
▁strei 1480
▁leichtem 1842
▁nordseetiefs 2640
ächlich 1414
▁wünsche 829
alten 722
▁verlä 1324
▁kur 1187
▁klarem 1177
▁durchs 2366
▁erreicht 847
▁wärmebelastung 3647
▁insg 1009
▁rü 1382
▁regenmen 1901
▁juni 1278
gang 3064
▁d 40
▁auftreten 2412
nn 169
▁ergiebige 1496
löst 2705
▁tal 2492
▁breit 2893
film 3595
▁oberpfalz 3578
du 3051
▁odernähe 2850
▁fiel 2759
ill 2701
stag 171
▁verb 2179
ost 457
▁senken 3133
ild 2548
eutsch 210
▁wettervorhersage 261
▁wobei 2006
▁dahin 1513
▁auft 1889
we 832
▁höhenlagen 2680
▁rest 2782
ehn 159
▁u 2049
ei 43
▁ruhiger 2600
▁münsterland 3537
fil 3060
▁meist 284
tzen 3440
▁gefährlich 2114
heits 3066
▁große 1938
▁kon 2058
▁vierundzwanzig 1076
▁kar 3188
▁informieren 3543
▁besten 3153
cken 252
▁schüt 2769
▁ihren 2892
falls 1430
▁bra 1974
▁dazu 597
▁sinkt 1674
rum 2078
▁unge 1981
▁wetteraussichten 2437
▁zwölf 669
ober 969
▁bewölk 1924
▁verwand 1797
▁wenigen 2084
▁wenigsten 2203
schei 2803
▁nächster 2082
▁frischt 1768
▁insgesamt 1021
eren 1183
▁halb 3180
▁internet 2639
▁dafür 1152
gige 2696
▁einzu 3211
▁metern 1393
▁spüren 2569
▁begin 761
▁tsh 3171
▁deutschen 950
▁diesem 1193
drei 872
▁vormittags 1935
▁aufgelöst 2982
▁dichtere 798
▁strenger 1682
▁zweiteilung 2079
▁mäßiger 501
erd 616
▁neunundzwanzig 1568
▁wird 170
▁reif 2409
▁l 128
▁entstehen 2242
▁mond 3425
▁lichtblicke 2126
lichen 459
▁dezember 1086
▁richtig 1132
▁spielt 3552
auen 2307
▁führ 2244
▁sieb 595
langt 2164
▁es 67
wolken 611
lösen 2228
ass 814
eit 223
▁denen 1898
▁frische 1417
t 25
▁geregnet 3613
▁oktober 978
▁genießen 2949
hält 2182
▁nieder 585
▁wettercharakter 3631
ess 2756
▁überhaupt 3634
▁übern 1982
▁herbstliche 3414
enden 3119
▁ausläufer 1560
▁quellwolken 1313
neb 843
▁regentag 3240
▁öst 826
▁statt 2674
▁kalte 1283
kl 2133
▁eines 1010
gehen 2268
ie 50
▁sechshundert 1920
▁brandenburg 1368
▁gefrierender 1107
▁ostern 2859
▁triebe 3374
▁übernehmen 2979
▁zwischen 453
ort 361
▁mecklenburg 2210
▁ech 3115
▁baltik 2112
▁trockenes 1658
öhn 1623
▁elf 743
ik 726
▁groß 1049
▁gesagt 1947
▁kräftiger 765
nde 3135
w 28
▁bald 2485
▁unwetterpotenzial 1867
enzen 2730
stunden 1884
▁dahinter 1575
▁kaum 850
nen 325
▁null 626
eilung 3243
▁pass 1832
wer 1692
▁rhein 640
▁südosthälfte 802
▁meisten 1597
▁erken 3268
▁zunehm 1047
▁wetters 2823
▁bevorzugt 3041
u 26
▁lüneburger 3004
▁siebenhundert 2354
ommer 1657
erts 2731
▁wärmer 747
sst 914
ab 1340
▁england 1489
▁erhalten 2176
einzel 514
▁hoch 334
tlich 384
▁weit 941
▁bestimmt 899
▁bewöl 598
▁schneef 576
art 642
▁zusamm 1516
▁zögernd 3025
▁ab 310
▁relativ 1436
wetter 402
▁niedrig 3591
▁ostermontag 3576
bayern 1311
▁frühen 2094
▁ungefähr 3492
so 2716
eg 1314
seite 2277
stung 3137
▁abge 2342
findet 3061
ütz 2727
ler 3074
▁gr 3155
▁flusstälern 3540
▁seite 2473
▁wärme 1526
▁entsp 988
▁sonne 164
unk 1893
▁winter 908
ehrt 2552
mä 3079
▁atlantikt 1570
▁neblig 1074
▁kurzer 2962
▁fall 552
▁lock 731
▁südostbayern 1926
▁ähnliches 1389
▁krie 3191
▁wochenmitte 3354
▁oster 2858
näckig 2428
▁heide 2774
▁dauerregen 1081
landigem 2523
▁reicht 1470
▁thüringer 1857
nischen 3081
▁einhund 2792
▁kriegen 3622
▁abgeklungen 3527
stein 1185
▁kreta 3193
▁regentrop 1274
▁durchsetzt 2995
▁lä 405
▁a 42
ont 1445
annung 3328
▁neun 456
▁vogtland 1103
▁zäh 1318
has 2698
▁vermehrt 2994
▁neunundzwanzigsten 1456
▁sicher 2825
▁breisg 809
▁stellenweise 487
▁verläuft 1338
ay 542
▁gegen 853
teil 1584
▁stark 401
▁strahlenden 3556
▁äu 1065
ister 3069
▁gil 1755
niveau 2454
▁ziehen 572
▁sorgt 563
▁boden 903
▁zurückziehen 2610
▁sich 154
▁kü 183
▁grenzen 2755
▁inten 2301
▁war 477
▁niedersachsen 2361
ola 2455
▁gekommen 3229
▁kühlere 1043
▁auss 2832
▁tiefdruck 1042
bend 282
▁erwarten 1243
▁sinken 1365
▁text 2665
▁rauskommt 3429
lan 3204
ü 35
▁mehr 440
▁ang 3231
▁meer 1257
▁reifglätte 2662
▁windiges 1715
ß 32
kühl 1572
▁bes 528
ulden 3382
▁südlich 813
glätte 1870
iver 2448
▁sachsen 1164
he 2269
▁h 72
▁verh 3278
▁eifel 1033
▁aufklart 1246
▁zieht 507
europa 609
▁südostwind 2364
▁nicht 483
▁tausend 2767
▁vorbei 1983
är 785
▁alpenraum 2337
▁don 297
▁höchstens 2012
el 115
igt 1222
ara 2686
▁maximal 2091
rä 251
▁unter 452
ts 287
▁dreizehnten 1491
▁sechsten 1603
▁steigt 1936
▁naja 1796
▁vorerst 2326
▁schneesch 1012
▁sicherheit 3571
▁bislang 2797
öger 2725
▁entspannen 3403
▁son 90
zeitig 1497
▁wechsel 446
▁gelten 1286
ark 1379
f 11
▁wochenhälfte 3353
▁droht 3560
▁vertrei 3284
▁sechsunddreißig 2357
▁nur 255
▁sonntags 2869
▁zweiundzwanzigsten 1604
osten 228
▁ansteigen 3235
▁nimmt 1818
wald 1162
▁luftdruckunterschiede 2213
inieren 3227
▁fielen 3563
▁tiefen 2852
▁gefrorenem 2989
▁späten 2196
▁pola 3299
▁kil 2297
gst 2035
sung 1743
▁werten 2862
▁freuen 3286
▁rand 2280
▁sonnen 516
▁wind 178
tschaft 2719
▁stürmt 3339
lt 1687
▁september 1105
lichtet 2510
fl 2132
lag 955
▁lassen 1300
morgen 2453
▁november 1020
▁möglich 582
ngt 1251
▁landesteil 1282
ptember 1089
▁ruhige 2097
dien 911
▁sonnigen 2177
uft 254
▁wandert 2424
▁einhundertsieben 3593
▁reg 213
▁mal 226
▁sam 367
▁endet 3473
äft 3106
▁einander 2794
▁während 816
▁blei 288
▁wechselhafter 1919
▁abgedrängt 3526
▁nördlichen 1621
▁nebelfeldern 1333
▁blick 3303
▁tiefausläufer 1111
▁bil 575
hältnis 2988
▁fallen 664
▁besch 989
▁hitzegewitter 1675
lung 3075
enende 2144
▁all 191
▁erreichen 1013
kay 2270
▁stabil 1866
schi 3221
▁unser 783
▁aussehen 3573
elt 1760
▁folgetagen 2681
läuf 857
▁überquert 1577
▁immer 512
▁star 349
▁wetterauf 3252
▁norditalien 3625
zon 1343
▁meteorol 2907
ßen 1344
▁schwappt 3292
▁dürfte 3014
▁hohe 2017
etzt 579
▁anfangen 2205
▁rieselt 1764
▁sozus 3302
▁weiter 318
▁südöstlichen 1954
lleicht 1071
lei 862
i 14
mpft 3558
▁sonnenschein 557
▁später 503
▁leichtes 2918
k 16
▁bereich 2346
▁sauer 1265
▁stärk 1593
▁tiefdrucksy 2607
▁herbstwetter 1620
▁währ 812
weg 1460
▁frü 698
immen 1661
▁unbeständig 1617
▁sin 1092
▁osten 218
▁ber 348
▁tornad 3022
▁windgesch 2531
▁har 2160
tw 339
▁gegeben 2515
▁ja 567
▁tiefsten 2853
hlen 1909
▁heft 725
▁gewitterrisiko 2320
wischen 1374
▁vord 2162
▁pro 1413
▁einunddreißigsten 2115
te 63
tember 919
ier 156
lossen 2380
▁langsam 756
▁ton 3169
tem 291
▁skandinavientief 2385
▁höher 1194
dessen 2692
▁eisig 1941
▁dri 3125
▁abends 1766
teorol 2764
▁main 900
imm 482
▁kleines 1679
▁finden 3165
▁siebenunddreißig 3342
▁sind 344
▁dominieren 3605
▁rar 2916
grenze 1230
▁nass 1346
▁regenf 768
▁innerhalb 3623
▁küstenbereich 2565
▁n 47
▁wolk 639
▁dicken 2736
▁kommenden 1157
▁tälern 2290
▁weiten 1563
gebir 518
ertag 3121
▁frostig 1016
▁selbst 2389
▁auflock 2973
▁herbstlich 2387
▁wür 1587
▁rasch 2917
▁schauer 160
▁span 1994
▁schottland 1502
ussland 1612
▁atla 675
▁lei 490
▁waldbrandgefahr 3042
▁ergiebigen 2095
twetter 3317
▁tr 729
▁scheint 519
rigen 831
▁traumwetter 3542
▁gestreckte 3654
▁hochnebe 2192
▁schließlich 3412
▁durchsetzen 3530
▁sommertag 2608
sstör 2919
gebirge 898
gäu 1145
▁örtlich 505
▁hunsrück 2670
▁angenehmen 2947
▁hart 2291
▁weg 1511
eite 1751
ünstigt 3375
▁sprü 1995
▁weil 3142
hers 256
▁massiver 3539
ingen 620
rö 645
▁donau 790
esten 126
▁frank 1247
▁starkregen 1419
reich 565
▁dementsp 3324
▁europa 2143
▁regnerisch 1653
▁stabile 2631
▁schiebt 3177
▁unwetterrisiko 2581
▁hinter 2009
flut 3506
zoren 1877
▁südsch 2786
▁großbritannien 1437
stur 2741
▁dauer 807
sh 2715
weh 1231
▁weiteres 2557
▁dreißigsten 1459
▁beschert 1060
▁breiten 877
▁nat 2148
▁andauernd 1953
▁äußersten 1121
▁runter 1649
westen 197
▁mittag 1826
▁neues 1423
▁voran 2533
▁entladen 2226
der 120
▁möchten 2889
▁sonnenstunden 2359
lösung 1791
▁gebiet 1710
▁graupel 1307
egentlich 966
▁freundliche 1118
▁sonn 201
ält 1277
▁überfrierende 3572
▁grau 1169
▁achtzehn 707
p 21
▁den 111
▁ausnahme 2998
▁spree 1359
pitze 3086
renzen 2372
▁th 1268
▁tro 302
▁südschweden 3028
▁durchwachsenes 2623
▁stürmischen 897
ächt 2465
▁nordnord 3199
▁nordfriesischen 2223
▁regn 236
▁ern 2175
▁trotz 1910
▁august 1179
▁tröpfel 2430
▁wolkenver 1594
lig 1064
▁ausnah 2425
▁ostsachsen 2861
▁vorüber 1235
unden 874
▁westlichen 1301
▁feuchte 1624
▁tut 2288
▁unwetterartigen 1781
▁eis 1284
sp 1547
stens 1590
halb 1088
▁sechzehn 690
ortlich 2563
▁schwarzwald 1217
▁ostbayern 2860
▁kälteste 3434
▁häufiger 1139
ehalten 1980
▁un 157
fähr 1402
▁kühle 909
▁leichten 1492
▁min 314
gefahr 1192
▁nächsten 491
▁orkanart 1288
om 2137
▁gefrierenden 1777
▁geb 396
▁baltikum 2129
▁nordwesthälfte 801
icken 1439
gtland 1097
▁daran 1822
▁rothaargebirge 3044
ember 723
ieben 2484
stigt 3138
▁berg 3318
▁schneefallgrenze 1461
ört 2378
▁davor 2296
wegs 1108
▁ih 569
▁anfan 673
▁dün 2051
▁ruhig 1780
▁bess 1607
▁hochwassergefahr 2991
bereich 2166
▁leichter 849
▁böiger 1622
▁mindestens 3608
▁w 46
▁deutschlands 441
▁steigende 1940
▁vergangenen 2420
brand 2688
▁böig 1676
▁sicht 1702
▁abseits 1218
▁kräftige 531
▁köl 1640
▁unwetterart 859
ruck 450
▁nasser 2946
sel 365
▁vierzig 2559
inden 2844
▁mitternach 2310
▁rund 2322
▁el 560
▁dadurch 3186
▁käl 781
▁tröpfelt 2664
▁geschehen 2968
▁kam 3189
▁unwetter 526
▁zwei 395
▁atlantischer 1943
röm 766
ant 3218
rech 1026
▁frisch 343
▁herbststurm 3581
ur 125
itze 1079
▁örtliche 2197
▁außer 2762
▁herrliche 2943
il 274
kommen 1141
anc 1700
äum 3107
▁gestreck 3458
▁mitte 281
▁lauf 653
▁kleinere 3430
▁starke 1044
▁zusammenkommen 3443
▁haup 1591
▁frischen 2184
▁betroffen 2636
▁orkan 838
renze 1120
▁zuschauer 589
▁regenfällen 1932
▁schwächt 2841
▁gewin 2987
▁verlagert 1228
▁tiefausläuf 2381
äh 333
schw 1273
▁flaut 2667
▁windig 545
▁kaltluft 1426
▁recht 564
▁meine 2053
▁zwanzig 553
▁nordmeertiefs 3546
▁trüb 991
▁balkan 1792
▁entw 858
rgebiet 3090
▁gewitter 179
▁blü 2544
neit 2711
▁alpenrand 494
▁stunden 1117
▁niederungen 1610
▁besserung 2954
▁okt 971
▁g 56
fallen 1226
▁heranziehen 3483
▁endlich 2119
▁extrem 2983
annt 3327
▁einstellen 2795
▁torna 2768
ol 122
arz 1130
zer 3102
▁tages 854
ße 2724
▁gewitterschauern 2617
jahr 2449
wind 612
tmeter 2139
ar 131
kehr 1807
ächst 648
▁wärmegewitter 3442
▁wiederum 3293
▁teil 143
▁schluss 3618
▁warme 1101
▁derzeit 1348
▁inner 3195
▁führung 3519
▁and 1266
▁zurück 1156
ören 3109
▁nör 1148
▁anfang 1929
rischem 2714
vert 3099
▁überqueren 1542
▁allerdings 670
end 260
▁gleichzeitig 1625
▁gab 1820
▁herrlichen 2614
▁sonntagnach 3325
▁lich 1811
▁tiefs 764
ische 2067
▁des 418
iel 1407
ralen 3202
beginn 2659
get 1868
▁hochnebelfelder 1618
▁extreme 2643
▁woch 425
▁dies 659
tla 599
▁abkühl 1656
▁bewölkt 629
▁zieh 360
▁hervor 3340
sland 841
▁per 3296
ör 981
▁aber 194
▁gut 734
▁winterlicher 2603
▁glat 985
▁sonnenstra 2579
▁zwar 1452
▁ihnen 610
scht 2513
▁hält 1296
▁sonnenstrahlen 2679
wig 1201
▁wechselhaftem 3502
ungs 1834
umen 3357
▁nächten 2081
▁folget 2606
▁klart 998
chnen 1880
▁himmelsb 2908
▁verhältnis 3283
erorts 787
▁osthälfte 706
▁wolkig 720
▁schwache 2856
▁hall 2771
▁veränd 2838
▁schneefallgebiet 2098
▁abgesehen 1369
▁sowie 646
▁tiefem 2545
mit 356
▁westwind 1486
▁unmittelbar 3632
▁hinaus 2376
ja 1469
▁heute 155
▁atlantiktief 2231
▁nachthälfte 1592
▁wit 2745
▁niveau 3145
▁ostwind 2553
bru 2687
äck 1878
▁freundlichste 3288
ndern 1971
▁blitze 2849
▁schneegr 2178
seenähe 2507
sä 3091
▁bew 580
▁dringend 2626
▁genau 2399
fre 2443
▁stellen 484
▁wärmebe 3358
undlich 215
▁verbreitet 449
wo 1968
▁hamburg 3023
▁erfreulich 3594
▁ging 2754
▁zugs 3250
▁russland 1650
▁das 173
▁ital 2151
▁dazwischen 1424
grade 1248
▁men 2152
▁europas 1631
▁wärmere 2089
▁treffen 3616
reift 2805
▁hundert 2775
▁wolkenreiche 2819
▁neu 533
▁gebieten 3336
inn 2065
▁dane 2498
▁verbindet 3515
▁anders 2474
▁atlantischen 2902
▁streift 2621
▁macht 1137
▁windgeschwindig 3548
▁wunderbares 2977
▁fünfunddreißig 1911
▁überqu 1558
as 211
▁leicht 910
▁dünne 2128
▁golden 3612
heit 1871
▁folgt 1784
▁gi 290
deckt 1787
▁neiß 1817
<pad> 3
▁rechnen 1896
▁wetteraufzeichnungen 3630
▁able 2864
ockert 2638
▁na 1637
▁wetter 151
▁vorschein 2324
isik 1552
ürin 1405
gen 55
▁los 1611
▁überschwemmungsgefahr 3655
▁kommender 3376
lar 350
c 8
äch 307
▁verstär 2538
stellige 1337
▁heftigen 1668
▁schw 221
zus 3103
j 15
▁ähnlich 931
▁april 1142
▁jahr 1654
▁und 54
▁bisschen 537
sy 2458
eut 189
▁gefrier 638
ließlich 2452
▁et 245
▁höhe 2905
▁aufzieht 3274
rü 1546
▁al 203
▁gefr 614
gebie 774
sicht 957
▁lediglich 3656
▁mittl 2064
▁sagen 1882
kan 749
et 82
▁konnten 3532
▁überhaup 3260
▁zum 233
▁glatteis 1725
werte 2020
▁umfangreiches 3484
▁morgige 3019
trächt 3098
▁aprilwetter 3415
▁bayerns 1494
▁mainz 3395
▁nordwest 587
▁präsent 3007
ehr 300
fach 2032
r 23
ina 962
ige 230
▁sommerlich 2105
deutsch 2691
▁nördlich 1535
ken 110
▁braust 3491
▁deutsche 2602
▁wenn 1154
▁zeitweise 691
▁dichten 1331
ang 2802
▁sternen 1619
▁außerdem 1626
▁bisher 2796
▁leich 649
▁zun 536
▁gestern 2233
▁auflockert 3586
▁meteorologen 3579
▁start 2193
▁menge 2985
▁andauer 1729
▁zudem 2066
aar 414
▁halt 2773
agt 1697
▁entsprechende 1178
▁spanien 2124
▁sprühregen 2029
▁tiefdruckgebiet 2384
▁schwüler 3431
▁zustand 3251
▁herum 2571
druck 454
▁nordse 2061
▁heranfließt 3040
rüb 3087
▁spiel 2568
auer 135
▁erheb 3521
▁mittelgebir 663
▁angefangen 3568
▁meiste 2549
▁rot 2632
▁üb 864
▁vierzehnten 1666
▁funkeln 2028
▁nähe 2149
▁gestaltet 3459
über 162
▁bekommt 2345
▁höchsten 2382
▁gelenkt 3377
▁eher 1195
etiefs 2499
▁dem 358
▁östlich 1934
lang 2784
ru 378
▁bevorzu 2926
▁nächte 2080
fr 455
geh 767
▁erwar 763
▁dauernebel 1847
meter 1213
▁irgend 3489
ation 2183
▁stei 935
eute 153
▁region 918
▁turbulenzen 3012
▁frühlingshaftes 3557
wär 1181
▁freitag 342
▁schien 3174
▁achten 1695
▁böen 461
▁er 198
▁informationen 3544
orna 2752
▁mittelgebirgstälern 2441
▁reichlich 2127
sichten 889
▁schauerrisiko 2527
auso 2206
▁bedeutet 1681
rand 443
band 1399
▁wechselhafte 2086
▁sechzehnten 1718
▁trüber 2906
▁zur 715
qu 923
▁herbstst 2932
ent 1202
▁tiefer 1450
ital 3183
euap 2785
▁lebt 2405
▁nordöstlich 1396
assen 1520
▁wetterberuh 2524
▁zähen 2940
sche 808
hin 544
wohl 2123
ap 2685
▁liegen 987
nd 44
▁andauernder 3488
▁abkühlung 1735
▁gewitterböen 1703
▁legt 2406
kand 979
▁dü 2733
▁runtergehen 3460
▁wenige 1712
unken 3187
▁seen 3359
▁schönsten 3470
seln 1915
eiß 728
▁förm 3167
▁blitzen 2942
▁beschäft 3405
▁fuld 3166
ogen 1581
leich 1305
▁längere 695
▁wechselhaften 2887
net 651
▁beeinflus 1913
▁jedoch 2217
▁oberfranken 2440
▁drä 3123
lauf 1272
▁mach 586
imeter 1468
▁len 972
fit 1805
neburger 2915
igem 2489
▁fl 740
▁ungemütliches 3478
▁zentimeter 1538
gar 861
pa 2712
▁j 280
▁kl 1040
▁hoher 1364
▁seewind 2595
▁mit 118
▁straßenglätte 2402
gnet 2697
▁allzu 2831
▁unmitte 3255
▁gebiete 3335
▁thüringen 1944
schauer 400
▁ebenso 3399
▁soll 2332
▁konnte 2996
ion 839
gebirges 3347
eh 91
▁außerd 1589
anuar 1095
▁nebel 317
▁wechselhaftes 920
▁chancen 1863
▁keine 1641
eigen 3134
reitet 386
ft 132
▁mat 3148
▁unterwegs 1135
▁biskay 2305
etrüb 3194
▁bestimmen 1667
▁sternenklar 1950
▁zumindest 1143
ut 1441
▁fängt 1551
ällen 1566
▁ecke 3384
▁süd 100
eutet 1647
▁dire 1750
ßig 220
eder 3058
▁erstmal 1104
rin 377
▁ruhiges 1216
▁sturm 397
▁verlag 1014
be 448
▁erwartet 1000
▁gan 3157
▁norddeutsch 2781
▁r 184
wärm 2464
▁früh 770
▁freundlicher 627
▁himmelsbild 3580
▁fünfzig 3312
▁aug 1150
▁radar 3394
fluss 738
▁küstennähe 896
alt 2521
▁darunter 2971
▁weniger 1058
▁erst 562
▁verurs 3282
▁am 83
▁bergland 566
▁aachen 2739
igen 381
▁biskaya 2435
▁lösen 1957
ischen 323
onten 2757
▁geben 893
▁mor 2748
ire 1740
▁raus 1388
▁kräftigere 3349
▁zunächst 650
lätte 835
▁anhält 3234
▁so 241
▁draus 3127
▁entst 1859
▁nässe 2964
▁niederbayern 2005
▁lebha 3031
▁neuen 1173
▁ström 782
fen 703
mp 2707
▁mögen 3355
▁tagsüber 894
itz 604
eicht 1068
läge 1421
▁drin 1633
▁fünfzehn 624
▁nörd 1160
▁einfluss 1759
▁verschwindet 2125
oten 1689
ürlich 2212
▁obwohl 2800
▁massiv 3538
▁strand 3246
▁südwestlichen 2362
neh 3080
mäh 1293
▁erzgebirges 3398
▁klar 394
▁orkanstärke 3386
▁hochrhein 3316
rächt 2334
▁weitet 2550
▁bla 2153
▁i 48
▁ad 2738
▁daz 540
eden 2693
▁bem 1054
▁zdf 2294
bul 2442
▁ems 1853
▁abklingen 2677
angen 1352
öst 958
▁aufgel 2068
▁dan 1151
es 57
▁fegen 3164
▁hurrikan 3620
▁gefährlichen 2950
▁zweiundzwanzig 964
▁erh 2327
▁nach 109
temper 337
▁blauen 2986
▁hochdruckeinfluss 885
artiger 2365
▁vermischt 3523
▁pur 3297
▁nordwestwind 1923
rücken 3089
ings 632
▁südwesteuropa 2587
▁turbul 2668
iebe 3152
▁vierten 1567
▁windstärke 2319
angenen 2396
luft 840
fall 922
▁äußer 1085
▁überwiegen 776
▁windiger 2530
▁streifen 1680
▁andauernden 3487
▁gewitternähe 1608
rem 1039
▁daher 3184
▁auflo 1907
▁neue 938
▁norddeutschland 705
▁füh 1902
▁erhöhte 3522
▁einiger 2789
▁sterne 1227
üsse 3113
▁zwöl 636
▁angenehme 2416
durch 3056
▁gesunken 3446
▁regenschauern 2093
emm 1646
▁nah 1472
▁verbleibt 3516
▁tiefere 2336
▁weitgehend 1003
▁donnerstag 359
▁erfre 2833
▁sonst 202
▁vordringen 3511
temperatur 338
▁wesentlich 3001
zzo 3105
igung 2490
▁siebzehn 654
▁verlassen 3281
▁inklusive 3026
emütlich 1829
▁flüssen 2209
wanzig 206
▁verg 2069
▁alle 1483
rm 313
▁einhundert 2793
kommt 1783
▁dritten 1749
▁wohl 1458
▁regenfälle 837
▁gesch 1886
▁unwettergefahr 1838
gentlich 1267
▁hallo 3024
▁harz 3181
tsp 963
hundert 951
▁feuchtere 2240
▁kä 2777
▁richtigen 2855
<s> 0
▁krä 275
▁türm 3172
ießen 2379
ade 2130
▁warmen 2597
wegischen 3435
▁herein 2874
▁bo 881
ffen 2033
ief 234
▁nähern 3457
▁dichte 792
estört 2532
▁hochwasser 2250
▁hochnebelar 2426
mlo 2136
enburg 1221
▁bläst 1209
▁azorenhochs 3531
▁einundzwanzig 934
▁flache 3453
