ssen 906
▁betroffen 2636
ischen 323
atur 335
schnit 1308
▁kälter 949
▁steigendes 3411
▁diesen 1514
regie 2292
▁triebe 3374
▁warnungen 1488
▁glat 985
▁sieb 595
▁südlich 813
stärke 1864
halb 1088
esteil 1275
▁azoren 1883
us 167
ichtet 3163
▁nasser 2946
▁scheinen 2578
älle 644
▁wahrscheinlicher 3402
▁atlant 681
erst 2281
iveau 2236
burg 1159
▁wunder 1802
gezogen 1709
▁hart 2291
▁bayern 737
ommer 1657
esluft 1756
▁hält 1296
▁erzgebirge 952
üb 633
▁seinen 2001
▁ihr 2891
▁hun 2495
▁auftreten 2412
▁verstärken 3006
ück 982
ahr 605
weden 2914
▁dadurch 3186
▁lässt 1099
▁massiver 3539
wer 1692
▁freundlichen 2070
▁weihnach 2551
▁zu 150
gar 861
▁entlang 1499
end 260
twetter 3317
▁vereinzel 517
pause 2713
schub 3224
bul 2442
▁azorenhoch 2411
ne 98
▁weihnachts 3551
▁extreme 2643
▁geh 2486
zone 1397
▁neuschnee 2000
▁kühlt 1708
▁b 53
▁lausitz 947
▁neb 289
▁im 60
▁kriegen 3622
▁strahlender 3555
▁informationen 3544
▁ausläufer 1560
▁nacht 134
▁höchstwerte 2388
drängt 3057
▁wälder 3606
▁weg 1511
ei 43
hundert 951
▁nebelfelder 730
▁seltener 2113
▁tiefausläufer 1111
▁sollte 3524
tschaft 2719
itze 1079
chten 1510
▁thürin 1432
üren 2466
ruar 1077
landigem 2523
▁nichts 1714
▁wolken 144
ss 2275
gst 2035
dem 1503
cken 252
▁deutlich 709
▁kalten 2004
▁regen 130
▁milden 1996
▁schwache 2856
▁wegen 1147
ab 1340
iebe 3152
▁deutsch 891
von 1342
▁stürmischen 897
son 804
▁frischer 578
gige 2696
ussland 1612
woch 2140
▁lichtblicke 2126
▁wolkenfront 3248
▁ostsee 481
dar 3054
▁gelichtet 2516
eide 2740
na 1628
renze 1120
▁glatteis 1725
▁also 702
▁rheinland 1927
▁verg 2069
▁war 477
▁somm 1029
▁erfurt 3270
▁schauert 1381
▁ruhige 2097
▁gest 1643
▁allmäh 1297
▁wolkiger 1361
▁wes 2479
eich 1635
age 227
ht 1006
▁wolk 639
▁viel 293
gtland 1097
nebe 2165
▁freundlichste 3288
röm 766
▁dingen 656
▁südostwind 2364
ieben 2484
▁bewölkt 629
▁stürmisches 2885
ass 814
▁la 351
▁nebelauflösung 2339
▁statt 2674
ieder 190
▁teile 1556
fern 2445
▁küsten 379
▁hochdruckgebiet 2370
▁span 1994
ällen 1566
stau 2476
samm 1506
▁finnland 3021
ere 372
klar 940
richt 2457
unddreißig 887
ungen 447
▁blicken 1596
▁lokale 2403
▁lan 724
▁sondern 2333
▁kühlen 2187
ximal 2047
▁verschn 2839
▁schauernähe 2582
▁samstags 3326
▁kla 1055
▁beispiel 1988
weg 1460
▁geb 396
▁württemberg 1861
▁osthessen 3310
▁sorgt 563
erwolken 1471
▁geringen 3360
as 211
neb 843
▁wechseln 1455
▁andauert 3467
eder 3058
▁heut 3179
▁mat 3148
▁weitere 1415
▁zweiunddreißig 2349
▁end 1813
geräum 3408
ken 110
▁angst 3233
▁feuch 1261
▁dich 432
pfel 1691
▁dazwischen 1424
▁einigen 844
▁regengebiet 1322
deutsch 2691
▁schwüler 3431
eits 855
▁nordöstlichen 3427
angenen 2396
▁normalen 3009
▁hunsrück 2670
▁nämlich 2022
▁auflandigem 2535
▁ja 567
▁nieselregen 2120
p 21
▁sechs 508
▁wechselhaftes 920
zieh 1182
▁macht 1137
▁star 349
▁gefrieren 803
lösen 2228
ll 106
▁gere 3159
deutschland 538
▁einunddreißigsten 2115
▁bringen 618
▁erst 562
▁w 46
▁ziehen 572
▁kleinen 2615
▁küste 736
▁polare 3640
▁stürmt 3339
▁kein 1476
▁tiefland 2854
▁heranzieh 1917
ster 1636
▁reichen 1442
▁tiefaus 1015
▁teil 143
▁um 777
▁ham 2770
▁besser 2019
▁bereits 1299
▁gewittert 2173
▁einmal 1699
gen 55
▁möchten 2889
▁neunten 1837
auso 2206
▁schneegriesel 2259
▁bleiben 1237
▁krie 3191
ennen 2728
▁le 1701
▁reicht 1470
wachsen 1508
b 7
▁gewitternähe 1608
▁wetterdien 925
▁wir 145
eren 1183
▁tausend 2767
stigt 3138
▁herbsttag 3413
▁winter 908
▁verliert 2840
▁nordeuropa 1823
▁wolkenschleppe 3627
▁dreihundert 2340
▁flusstälern 3540
montag 2708
gend 2056
▁regenfällen 1932
▁niederungen 1610
▁he 714
ngt 1251
rocken 3257
▁häufigsten 2099
▁besten 3153
▁unmittelbar 3632
zeichnungen 3600
▁konn 2418
▁vierten 1567
lo 994
▁startet 1914
▁ähnliche 2604
▁grie 2156
ant 3218
▁feuchtere 2240
▁pfingst 2421
▁erh 2327
▁anders 2474
amm 1398
▁schn 478
beg 2351
▁wolkig 720
fluss 738
▁westhälfte 948
unken 3187
öhte 3422
▁einstellen 2795
▁atlantikt 1570
▁eisig 1941
▁g 56
▁verteil 3280
sät 2138
▁haup 1591
▁bekommen 1453
reichen 797
▁kalt 696
▁heide 2774
▁näh 1638
▁ste 467
▁platz 3639
europas 1609
wie 476
▁schüt 2769
▁soll 2332
▁unwetterrisiko 2581
and 583
angen 1352
schied 828
▁größere 2230
sel 365
▁erle 2328
▁verlauf 2537
uh 672
▁schwarz 1172
schauer 400
▁biskaya 2435
stärk 1815
äch 307
eb 187
eutet 1647
▁ruh 845
iver 2448
▁beschäft 3405
▁daran 1822
ß 32
▁der 77
▁gem 3228
▁hartnäckig 2431
▁ecke 3384
wir 2463
ehind 2505
▁gefriert 2590
▁frei 340
▁häufig 884
bert 3208
▁braust 3491
▁diese 660
▁flach 1614
▁beschert 1060
zzo 3105
ßig 220
gegensät 2251
▁dichtere 798
ausend 2207
▁hatten 2008
▁quell 1306
▁gebiet 1710
zus 3103
▁leider 1771
▁wärm 603
▁öst 826
▁ausnahmen 3533
▁schneien 1102
▁zunehm 1047
▁entfernt 3653
▁los 1611
▁l 128
▁klasse 2929
▁niveau 3145
▁aufwärts 2835
▁entsprech 1083
▁sternenkla 2955
▁stü 422
▁reste 2783
▁weiterhin 677
▁informieren 3543
▁schneefälle 1078
▁profitiert 2241
▁schwach 295
▁andauer 1729
▁ne 376
▁samm 3130
▁n 47
▁strömung 2909
▁schneeschauern 3407
fter 1578
▁einfluss 1759
lösung 1791
▁dane 2498
werten 2958
▁halbwegs 3621
▁norden 166
▁starkregen 1419
▁einher 2791
für 1144
ter 64
▁dafür 1152
▁höchsttemperaturen 1574
▁getrübt 3610
▁gesamten 1958
kehr 1807
rei 121
ik 726
▁front 3309
▁her 431
ng 424
ag 66
ast 1180
▁hochdruck 700
▁gewitterrisiko 2320
▁heranziehen 3483
tlich 384
▁winterlich 1848
▁kiel 3190
renzen 2372
▁h 72
ri 2040
ehende 3203
▁a 42
▁dun 2283
▁hur 3178
▁regentief 3241
fl 2132
lässt 2883
▁ostseeküste 1770
▁pf 2071
lang 2784
▁donnerstag 359
chenland 2216
ander 1241
▁schwüle 2618
▁schwarzwald 1217
▁vorbei 1983
<s> 0
▁hochdruckeinfluss 885
anfang 3220
▁geben 893
rauen 3201
▁genug 2616
und 51
▁bergen 679
▁gestaltet 3459
▁zuschauer 589
ir 485
▁äußer 1085
▁th 1268
tige 3097
ers 217
▁intens 2434
▁pegel 2846
▁hochdrucklage 2903
▁einstell 3209
▁ung 1482
▁eingef 3212
▁flache 3453
asser 1778
▁osten 218
▁gefahr 1761
verteilung 3599
▁juli 904
seln 1915
▁neuer 1239
▁halt 2773
dessen 2692
▁einhundertsieben 3593
▁kühle 909
lin 1545
ket 3071
ige 230
▁r 184
▁oberpfalz 3578
▁fü 139
orna 2752
▁förm 3167
▁ganze 1280
▁dürfte 3014
▁küstenbereich 2565
▁schönen 541
rum 2078
▁dick 2145
▁zent 1269
▁zweiundzwanzig 964
▁verlagern 1673
▁angen 1353
ckt 3294
ro 161
▁aachen 2739
▁mains 1782
▁morgige 3019
▁geschehen 2968
▁könn 515
▁menge 2985
▁überg 1763
rig 2456
ächt 2465
änd 574
enähe 2471
▁trockenen 2867
▁feuchter 1854
▁herum 2571
▁winterlicher 2603
▁verwandeln 2237
ull 622
▁werte 699
anc 1700
immel 742
▁sonn 201
▁strenger 1682
▁verschnaufpause 3034
be 448
▁regn 236
▁sech 371
▁thüringer 1857
▁re 93
▁temperaturgef 3322
▁herren 2083
▁frischen 2184
▁herrlicher 2395
get 1868
tbl 1966
▁südbayern 3207
erd 616
ieh 326
▁freundlichsten 1225
▁breitet 1069
▁einzelne 412
ste 415
▁frühling 2624
▁woche 708
▁lä 405
▁rost 3116
▁sollten 3525
meer 1032
rem 1039
▁inter 2059
▁wo 694
▁wetterwechsel 2172
europa 609
▁wetteraufzeichnungen 3630
▁sie 224
trächt 3098
▁weiten 1563
▁höchst 1245
llen 466
▁früh 770
▁frühlingshaft 2644
iesel 984
▁nordosten 413
üt 2726
▁mindestens 3608
▁gelangt 2169
▁erhalten 2176
echsel 439
▁allerd 667
▁veränd 2838
▁wetterbestimmend 2438
ingen 620
▁verurs 3282
▁wetterberuhigung 2675
▁norwegen 2629
▁brand 1317
appt 3047
altet 3244
▁aufklart 1246
▁norddeutschland 705
▁rar 2916
front 1605
▁beruhigt 1310
▁rhein 640
ternach 2286
▁außerd 1589
▁hol 1167
▁sieben 474
▁nordische 2780
▁sechsundzwanzig 1360
▁größtenteils 2976
▁mass 2482
▁ungestört 2622
▁auch 96
▁eh 873
▁rasch 2917
ndern 1971
▁befindet 3315
erorts 787
▁zähen 2940
rigen 831
süber 888
druck 454
▁erzgebirges 3398
lück 3077
▁geschneit 2969
▁nordmeert 2502
▁klart 998
▁siebzehnten 1775
geben 2194
▁ungemütlich 1858
▁landes 1840
esch 822
pp 1582
rängt 2851
iv 1050
ähe 596
▁mond 3425
▁nasse 3607
▁orkantief 2599
▁köln 2627
▁holstein 1197
<eos> 5
▁gefr 614
▁schließlich 3412
▁atlantische 1731
▁verbindet 3515
▁westfalen 2030
best 817
▁für 177
äft 3106
▁mittwochs 3330
▁angesagt 3569
▁schneefallgrenze 1461
▁beeinflusst 2247
▁rück 3262
estört 2532
on 58
rischem 2714
▁gra 104
▁teilen 1170
vember 1007
eutsch 210
c 8
▁leich 649
beruh 2508
ringen 3329
▁dä 1694
▁drei 299
▁auss 2832
▁stellen 484
ha 470
ire 1740
▁auffrischendem 2960
▁wärmere 2089
▁kommt 498
▁siebten 1490
durch 3056
▁stren 1555
▁su 2737
▁stürmischer 1385
ähr 711
▁mittlere 3498
▁ostseenähe 2554
▁bay 631
ström 2743
▁entladen 2226
io 3068
▁kilometer 2433
▁ruhiges 1216
▁verkehrsstörungen 3043
▁glätte 917
chen 924
▁heißt 1304
tw 339
▁brin 436
▁haben 499
teorol 2764
▁zeit 472
▁rostock 3601
▁feuchte 1624
sp 1547
▁trö 2287
wegischen 3435
▁genauso 2227
▁baden 1473
▁sonntagnachmittag 3644
▁regenf 768
▁seite 2473
▁eintausend 3213
▁em 1127
bend 282
ächst 648
▁nah 1472
▁paar 442
▁nachmittags 1046
▁gefährlicher 3436
▁norddeutschen 3027
▁spür 3337
▁bayerischem 3424
ur 125
▁spree 1359
▁intensiver 3535
▁erwar 763
gef 2350
ün 732
▁gil 1755
▁hochnebelar 2426
▁dünn 3559
▁vierzehn 577
kühl 1572
zt 2722
▁fol 1024
▁dür 2735
▁herrlich 2110
▁mögen 3355
▁letztendlich 2417
▁schauerartiger 2528
▁dreiundzwanzig 1057
▁erken 3268
ech 208
fte 232
▁kurzzeitig 2963
▁zähe 2161
▁kräftigere 3349
▁laue 3321
▁angenehmer 2981
▁sicher 2825
▁gesagt 1947
▁verantw 2539
▁gewitterschauern 2617
cklenburg 2181
are 3045
▁hamburg 3023
▁warmes 2598
▁wetter 151
▁wetterberuh 2524
▁atla 675
ingst 2400
▁taut 3406
▁nie 2746
▁etwas 271
▁oben 2799
▁tiefdruckgebiete 1726
reicht 735
tes 1876
▁nordwest 587
▁kühles 2188
▁tr 729
programm 3597
anuar 1095
fran 2034
▁wund 1752
▁hochwassergefahr 2991
▁anfan 673
▁windig 545
▁nordosteuropa 3379
▁fegen 3164
▁herankommt 2900
iefs 1561
▁hoher 1364
▁ersten 1276
▁damen 2057
q 22
üh 3110
▁norditalien 3625
▁erdrut 3636
▁zieht 507
mlo 2136
▁hundert 2775
▁wetterchara 3253
▁plusgrade 1524
heits 3066
▁wolkenband 2171
▁glatteisgefahr 3466
▁regengebiete 2519
▁regentrop 1274
sturz 3015
▁gefroren 2202
ritten 1727
anz 165
uni 1270
alt 2521
▁abklingen 2677
▁geschlossen 3481
▁nörd 1160
▁sommerliches 3503
au 113
▁tiefausläufers 2661
orden 2778
<pad> 3
▁gel 739
▁v 76
▁dar 1892
▁unbest 867
▁bestehende 3366
sh 2715
ehm 788
bru 2687
▁südwestwind 1214
▁trockenste 2868
ö 34
▁fäll 419
ub 2720
est 180
▁hinter 2009
▁ungemütliches 3478
▁angenehm 1855
deckt 1787
▁bedeutet 1681
zogen 1693
▁bezieh 2189
a 6
keit 2451
▁gewarnt 3030
▁unge 1981
eute 153
▁wahrscheinlich 968
▁kälteste 3434
rück 2274
▁luftmassen 1598
▁dreizehn 641
wig 1201
▁hauptsächlich 1684
▁sieht 1325
ischt 2525
▁nächten 2081
▁radar 3394
▁ausn 2174
▁tiefst 2072
▁doch 1091
▁waldbrand 2927
ue 2721
▁jedenfalls 1939
▁stark 401
▁vorübergehend 1336
▁endlich 2119
▁gegeben 2515
▁apr 1128
▁ein 102
icht 185
▁gefrier 638
breitet 435
▁gilt 1803
▁gewitterträchtigen 3659
▁spüren 2569
gebiete 1387
ind 239
immend 2356
▁kar 3188
▁nordwesteuropa 2586
▁nördlich 1535
▁tiefem 2545
▁wunderbares 2977
▁gol 3158
▁einem 961
▁verlagert 1228
▁bemerkbar 1062
▁treten 2766
▁ging 2754
▁durchaus 1493
▁luftmassengegensätze 3450
▁erreicht 847
ien 309
▁höchstens 2012
emütlich 1829
▁höher 1194
▁südwärts 2787
▁jederzeit 2377
▁führung 3519
▁hohen 2398
näckig 2428
▁wunderbaren 2635
achsen 852
▁zw 321
▁ostfrie 2185
▁treffen 3616
lagen 1188
zo 3101
▁zwar 1452
enende 2144
▁höhen 2594
▁abkühl 1656
echien 3277
örm 3108
▁oktober 978
▁balkantief 3471
urm 391
gefahr 1192
▁mitternacht 2436
▁brei 570
▁südostbayern 1926
hers 256
▁erz 926
▁runter 1649
▁schlei 1474
▁herr 1330
▁ 36
▁baltikum 2129
▁sch 71
reiches 2890
▁unterschiedlichen 1018
▁regnerisch 1653
tember 919
▁berg 3318
▁leichtem 1842
▁örtlich 505
▁aktuelle 3011
▁frühlingswetter 3472
▁südeuropa 3206
▁präsent 3007
▁wirklich 1762
▁löst 2313
▁zwischend 1599
▁mildesten 2605
chnen 1880
▁süddeutschland 933
so 2716
gie 757
iemlich 1165
▁geregnet 3613
eut 189
küste 1175
▁heftiger 2373
▁regentag 3240
▁reißt 2410
▁sternenhimmel 3455
tz 1507
▁berlin 1602
▁hochw 1991
sch 117
▁auflock 2973
▁einfach 2304
▁mittelmeerhoch 3420
▁bildet 687
ocken 1505
▁größer 2948
undzwanzigsten 549
▁legt 2406
▁flachland 1733
▁türkei 2669
▁heute 155
▁himmelsbild 3580
▁kommen 733
▁siebenundzwanzigsten 1713
▁bild 668
▁droht 3560
▁england 1489
eszeit 1888
ät 1746
chara 3122
▁stärker 1794
▁ähnlich 931
▁winde 1905
achen 2300
▁traum 2494
▁stei 935
▁verkehrsb 2637
▁jeden 1109
▁nordsee 363
▁internet 2639
nebel 869
▁strömt 810
▁se 606
▁kommenden 1157
▁ang 3231
▁bewölk 1924
▁wettercharakter 3631
ts 287
▁aktuell 2663
ver 794
▁hochnebe 2192
▁auflösen 2330
▁südwind 2063
glätte 1870
uchen 2044
▁islands 3475
▁extrem 2983
▁gelten 1286
▁runtergehen 3460
▁oster 2858
▁sprühregen 2029
▁stärksten 3449
▁südostwärts 3362
▁dementsp 3324
▁gebietsweise 429
▁entst 1859
gra 1210
▁dichter 593
den 219
annt 3327
zu 1745
▁ergiebiger 1721
▁deut 704
▁stoßen 3247
▁u 2049
ess 2756
▁bra 1974
▁gefrierendem 2090
um 581
ziehen 1536
▁dies 659
▁gerechnet 686
▁siebenundzwanzig 1422
▁zieh 360
▁ange 2810
▁hochsommer 2229
▁sobald 1833
▁ausfallen 1298
ion 839
zel 272
▁grenzen 2755
▁kur 1187
fallen 1226
pomm 1690
▁gute 2873
▁entla 1302
▁müssen 2054
▁feu 1008
▁wechselhaften 2887
stung 3137
▁alpen 264
▁verschwind 2021
öst 958
findet 3061
▁ton 3169
▁zwischen 453
▁möglich 582
▁beginn 1495
böen 408
▁längerem 1719
▁seiner 2584
▁bla 2153
▁sicht 1702
▁januar 1098
ckar 2540
ild 2548
▁erfahr 3269
▁ganzen 1100
▁nordöstlich 1396
▁quadratmeter 2261
dien 911
▁fran 1149
wechsel 2045
quer 1372
temper 337
▁gefährlichen 2950
▁unten 2826
lbar 3076
▁massiv 3538
▁tagen 509
▁sehen 1443
indet 2541
ituation 2497
▁hochnebelfelder 1618
ck 225
▁landesteile 2391
▁get 3156
liche 1212
sterland 3456
mäh 1293
west 390
▁dezember 1086
▁zeigt 755
▁folgen 1463
öh 1220
▁kritisch 2654
▁tröpfel 2430
▁spürbar 3646
▁fünfzehnten 1717
▁nor 1816
▁sodass 1765
lich 108
▁unwettern 1999
hen 2036
rop 510
▁höheren 1219
▁deutschlands 441
itz 604
▁sachsen 1164
▁anfangs 748
ott 1404
▁fiel 2759
▁sichtweiten 2959
▁ostermontag 3576
gebirges 3347
▁luftdruck 800
▁frühlingshafte 3505
▁sechzehn 690
▁gut 734
undert 2750
▁verschwindet 2125
▁westlichen 1301
massen 1580
▁südosthälfte 802
▁franken 2221
▁ich 778
▁bedeckt 1912
▁schick 3176
▁fast 1211
▁können 547
roffen 2529
raus 2504
▁hinweg 1722
▁wochenende 594
▁je 927
▁näch 416
▁daher 3184
▁neues 1423
▁regeng 3238
▁nordat 2501
zwanzig 247
enken 3118
▁komm 385
eicht 1068
▁strom 3032
▁wi 105
assersituation 3385
haar 2699
▁gefrierender 1107
▁kam 3189
▁nordostwind 1845
▁dünne 2128
iegen 3150
langt 2164
einfluss 795
▁südöstlich 3469
anzieh 1904
▁inner 3195
▁mon 3146
etrüb 3194
▁achtzehnten 1931
▁fre 214
pa 2712
▁meiste 2549
teils 2953
em 146
lan 3204
▁ableger 3039
kord 3072
▁beiden 2341
▁frostigen 2353
stellige 1337
▁neun 456
▁neunundzwanzigsten 1456
▁oberrhein 539
chtig 2837
▁gehen 1975
▁dauernebel 1847
▁regenschauern 2093
▁durchsetzt 2995
wo 1968
lle 2798
hund 912
wegs 1108
▁unwetterwar 1155
▁verm 2331
▁minus 315
▁fünfzehn 624
erreich 2732
▁nordmeertiefs 3546
▁schwere 945
▁wolkenlücken 1409
frie 1119
esamt 1019
▁heftigen 1668
▁ohneh 3512
▁angefangen 3568
▁zusammen 1541
▁gewitterschauer 1410
▁hochrhein 3316
▁überhaup 3260
komm 954
▁oberhalb 1420
ören 3109
punkt 1161
ünstigt 3375
▁klarem 1177
▁lebt 2405
is 73
▁mo 1316
▁bl 242
▁weitergehen 3313
▁schott 1475
▁und 54
▁golden 3612
▁heißer 1846
▁aufgelockert 2641
▁passiert 2238
cker 1652
▁dominieren 3605
▁ende 2142
nach 1688
ralen 3202
▁an 127
▁produz 3652
▁auto 2763
arz 1130
▁dritten 1749
ört 2378
▁beeinflussen 2974
▁ledig 3465
▁frank 1247
ieren 1557
▁dahinter 1575
▁mittelgebirgst 2368
inn 2065
et 82
he 2269
▁aus 196
▁gewittrige 1196
▁herrscht 2944
▁ganz 437
▁anhalten 1320
▁manch 1174
▁misch 1115
ont 1445
▁nebel 317
▁leichtes 2918
▁rande 2992
▁kaltfront 2369
▁schickt 3619
▁sei 3128
seite 2277
ungs 1834
chtesgaden 3276
▁erstreckt 1959
▁anson 823
▁überschwemmungen 1799
▁deutschen 950
▁knapp 2121
lassen 2062
▁erhöhte 3522
▁profit 1856
▁wunderbar 1955
ru 378
ür 786
▁bestimmen 1667
▁lag 3236
schi 3221
▁leicht 910
▁sauer 1265
g 12
▁stro 2816
sche 808
▁gewit 176
▁verkehrsstör 2980
▁plat 3298
tem 291
wei 129
▁sonniger 1449
war 615
▁pfingstwochenende 2997
▁t 70
▁zugspitze 3628
iter 1872
westen 197
▁guten 556
▁gipfellagen 2422
nähe 727
w 28
äll 320
▁scheint 519
▁hochsommerlich 2990
▁ent 1606
▁allem 316
stur 2741
▁süddeutschlands 2920
iebt 3151
▁verb 2179
▁sechsunddreißig 2357
▁erwarten 1243
we 832
▁zweistellige 1916
j 15
▁ansteigen 3235
▁deutsche 2602
▁fort 2157
▁kom 3192
tälern 2460
has 2698
▁führt 2650
▁selbst 2389
▁eine 619
▁gering 2589
▁blei 288
sstör 2919
bald 1804
▁register 3285
▁bodensee 1462
fal 1401
▁trennt 3565
bt 172
erseite 3290
▁ähnliches 1389
wolken 611
▁becken 3314
▁m 49
▁sterne 1227
▁gleich 1378
▁pfalz 1908
öl 392
▁kühleres 3343
rächt 2334
▁hurrikan 3620
▁überqu 1558
▁trocken 329
reicher 2003
▁unbeständ 871
▁gefrorenem 2989
▁nur 255
▁thüringen 1944
auchen 2801
gt 243
▁lie 411
▁o 112
ütlich 1810
ell 1199
kt 354
▁kühlerer 2087
▁späten 2196
▁pola 3299
stand 2742
▁bil 575
auen 2307
läuf 857
▁frü 698
▁zustand 3251
▁harmlose 2651
sy 2458
▁kälterer 3401
▁insgesamt 1021
▁daneben 2671
▁tiefs 764
▁tiefdrucksystem 2682
▁hochnebelfeldern 3454
▁vertreiben 3638
▁währ 812
unde 2749
▁ehesten 1363
▁finden 3165
▁nied 3017
▁setzen 3132
▁son 90
reitet 386
▁südöstlichen 1954
▁dauert 2653
▁richtungen 759
▁tief 257
bur 1123
▁rheins 1425
▁einundzwanzigsten 1698
▁jahr 1654
▁nordhälfte 762
▁hinein 3393
▁kälte 1427
▁ruhiger 2600
▁höchsten 2382
u 26
▁lange 2208
▁münsterland 3537
auer 135
▁heiße 1670
sichten 889
▁stürmische 716
▁schwächt 2841
▁weiter 318
ren 713
▁november 1020
ier 156
▁gestreckte 3654
▁hohem 2111
▁ital 2151
▁schneeverwehungen 1250
▁neue 938
▁spätsommerlich 3528
inav 992
inieren 3227
ngen 2271
▁rauskommen 2397
endem 2073
▁zudem 2066
<bos> 4
▁nordseeküste 1383
om 2137
▁nordnord 3199
▁achthundert 2348
hl 265
▁mittw 382
▁häufiger 1139
▁nennen 2747
▁überschw 1648
▁gipfel 2075
scha 2309
▁waldbrandgefahr 3042
ings 632
▁holsteins 3418
hoch 1341
▁ech 3115
▁nieseln 3480
▁umfangreiches 3484
▁landwirtschaft 3008
▁niedrig 3591
unddrei 880
▁tre 3170
▁situation 3131
etz 522
▁vordringen 3511
▁daraus 3185
▁vierundzwanzigsten 1659
▁streift 2621
ckerungen 2234
reich 565
▁bläst 1209
▁bem 1054
▁ruhrgebiet 3389
▁einzelnen 1133
▁gefährlich 2114
▁aufgel 2068
▁europas 1631
▁tren 2765
▁präsentiert 3589
▁besteht 1613
▁ostfriesland 2649
▁sowohl 2543
icke 1776
▁kühler 497
▁nordfriesland 1394
ütz 2727
▁flüssen 2209
▁höch 1017
▁sich 154
▁quellwolken 1313
lauf 1272
▁erfre 2833
eil 140
▁südosten 364
▁gerin 2588
erisch 1632
schiede 1669
▁weht 352
▁bet 1973
▁südhälfte 882
▁südlichen 1350
lei 862
▁genau 2399
kal 1262
immt 775
▁ausbreiten 1543
▁unwetterart 859
ten 158
▁oberen 2882
▁abgesch 3311
▁ber 348
▁sind 344
d 9
▁bisher 2796
kla 2702
▁neu 533
lastung 3205
▁nachlässt 3216
aar 414
▁heranfließt 3040
▁durchwachsenes 2623
zehn 186
▁fallen 664
▁f 61
▁schüttet 3566
▁beg 678
mpft 3558
ehmen 1671
▁tage 1355
▁verhalten 3279
▁tages 854
▁verwand 1797
▁des 418
▁tauwetter 1498
tmeter 2139
▁geringer 3553
▁schauerwetter 3256
▁regional 2101
▁kü 183
▁inform 2500
ree 1347
▁beziehungsweise 2260
▁verbleibt 3516
▁förmlich 3615
nn 169
▁matschig 3609
▁i 48
▁erreichen 1013
▁mittelmeer 1206
▁landwir 2585
enkt 2729
entsp 3120
wert 3100
stag 171
▁donau 790
▁ergiebige 1496
▁zehn 521
▁auflockert 3586
▁schwarzen 2933
▁isar 2052
zer 3102
▁es 67
▁unserem 3381
▁freundliche 1118
▁gerät 2363
lichtet 2510
▁erfreu 3033
▁konnten 3532
▁feb 1070
der 120
▁knack 3482
▁anderes 3582
scht 2513
▁folgenden 1732
▁sa 2284
▁tallagen 3003
▁wochen 559
▁unmitte 3255
▁als 492
▁wärmer 747
▁rut 3263
▁sonnenstunden 2359
felder 543
▁föhn 1639
▁ab 310
▁stunden 1117
▁vom 685
▁kaltes 3370
▁lü 2517
▁nässe 2964
▁stärk 1593
▁anhaltenden 2394
▁kil 2297
▁mark 2483
▁werten 2862
rikan 3598
▁biskay 2305
▁unwetterwarnungen 1289
▁mittelgebirge 1386
▁vielen 1562
tte 818
o 20
schei 2803
ad 2031
▁kaltluft 1426
▁südskandinavien 2302
▁posit 3035
▁sehr 525
▁überschwemmungs 3463
antw 2512
▁württembergs 2957
▁entwickelt 2601
▁nas 3144
▁kann 399
egel 2392
▁rothaargebirge 3044
<unk> 2
einander 1295
▁el 560
▁diesem 1193
▁polar 3300
gebie 774
▁einhunderts 3029
▁sturmtief 1418
▁tun 1891
▁mittelgebirgen 815
▁moment 3462
▁betrifft 3657
egt 3059
▁schwappt 3292
▁zurzeit 2904
▁abgesehen 1369
▁gehalten 3161
gang 3064
rost 420
nt 486
▁mö 561
fronten 2878
ontag 410
▁mä 269
▁hessen 2772
▁nochmal 942
▁sonnen 516
▁wetteraussichten 2437
▁chancen 1863
▁wind 178
▁richt 263
▁osteuropa 1565
▁verw 1651
lung 3075
▁blitzen 2942
▁kämpft 3567
tter 3095
brand 2688
▁gewin 2987
▁rest 2782
▁fünfundzwanzigsten 1521
▁englands 3438
▁sternen 1619
▁zuge 2822
▁bedeutung 3441
▁windiger 2530
▁begrüße 3648
▁deshalb 1711
önn 511
▁feucht 1573
▁gar 2155
▁sechshundert 1920
▁z 75
▁lauf 653
fangen 3364
▁abge 2342
te 63
▁liegen 987
orts 780
▁ergieb 799
liert 2706
europ 558
▁atlantik 939
▁hochdruckwetter 2007
▁oh 2167
▁odernähe 2850
▁weiterziehen 2866
des 3052
▁davon 1349
▁grenze 1976
mm 209
len 2704
erseits 3289
pen 262
▁kräftigsten 3348
▁tiefere 2336
▁überwiegen 776
▁wechsel 446
dig 3053
▁hö 719
▁südosteuropa 2201
schw 1273
ale 2520
▁alpentälern 2547
▁achtundzwanzigsten 1769
▁graupel 1307
▁sein 551
▁obwohl 2800
▁inklusive 3026
ald 689
▁kräftiges 2198
▁wen 444
▁fla 2487
▁bergland 566
▁anhaltende 2941
▁himmel 753
▁kaum 850
▁kleinere 3430
▁bekommt 2345
▁zehnten 1773
lö 1440
▁sinkt 1674
neburger 2915
läufer 902
▁zurückzieht 3416
▁maximal 2091
net 651
▁ausgeschlossen 3635
▁sternenklaren 3486
klich 1741
▁rügen 1435
▁schneesch 1012
sischen 1875
▁flusspegel 3541
▁fünfzig 3312
▁dreißig 791
▁schneegr 2178
▁tiefdruck 1042
unter 617
eln 773
▁natürlich 2254
▁herrlichen 2614
▁gesunken 3446
▁in 87
▁rechnen 1896
▁unwettergefahr 1838
▁verlassen 3281
stra 2475
▁peuapeu 3037
▁sofern 3301
▁nör 1148
aben 493
▁dazu 597
▁neiße 1865
▁neunzehn 876
▁eis 1284
▁radarfilm 3649
▁zum 233
acht 2299
grade 1248
ächen 2555
▁tut 2288
▁während 816
ationen 3517
ara 2686
▁windiges 1715
▁wäl 3143
ehen 676
nung 1873
▁orkanböen 1287
▁weit 941
▁bessert 3452
witter 1517
▁lang 2077
ießlich 2219
▁entsprechende 1178
▁sommerliche 1851
flus 692
▁verschärft 3585
üss 2467
▁schluss 3618
eswig 1204
▁kon 2058
▁vorboten 3264
▁fünften 1707
▁kühlere 1043
▁abend 283
▁gibt 296
▁bestehen 1527
sstunden 2100
mal 602
▁tag 182
▁entwick 878
▁vie 267
▁südwesthälfte 1242
mer 488
▁erstreck 1922
▁nördlichen 1621
▁wahr 960
ßer 980
▁hin 875
ält 1277
▁kühlsten 1990
eg 1314
gentlich 1267
▁tatsächlich 2257
▁trotzdem 2246
ap 2685
▁lebha 3031
▁entw 858
▁was 1376
eigen 3134
essen 1821
zeitig 1497
ächlich 1414
▁bilden 1240
▁meteorologen 3579
▁chance 3468
▁mach 586
▁außerdem 1626
▁örtliche 2197
poten 1808
▁meist 284
nd 44
▁polaren 3641
▁reich 2050
▁har 2160
▁drin 1633
▁einzug 3626
▁zunächst 650
osten 228
▁ohne 2646
▁tauchen 1464
▁rothaar 3010
▁gro 1038
▁thema 2390
▁insg 1009
▁auft 1889
▁tshir 3617
fel 451
fr 455
ie 50
▁geringes 3554
ach 84
▁unbeständiges 1158
risiko 1583
▁ostwind 2553
▁zwischendrin 2404
▁dreißigsten 1459
▁trifft 3373
▁landesteilen 1433
▁nasskal 1942
un 80
▁beieinander 1357
▁ge 124
▁gewitterböen 1703
▁luftdruckunterschiede 2213
▁sagen 1882
▁gegensä 3390
▁nennens 3018
▁jetzt 661
▁mittleren 2419
▁temperaturgegensätze 2560
▁achtundzwanzig 1384
tsweise 428
▁verlag 1014
▁luftmassengrenze 2232
▁bes 528
▁j 280
▁östlichen 976
▁kna 1894
▁durchziehen 3367
▁nordrändern 3624
▁gestern 2233
▁norddeutsch 2781
▁trüber 2906
▁wolkendeck 1645
▁dicken 2736
▁vogtland 1103
sland 841
▁meer 1257
▁alpenrand 494
▁nord 88
▁siebenhundert 2354
▁oberschw 2574
isches 2824
▁region 918
▁au 62
▁wald 1037
▁wie 697
▁eingel 3210
ürin 1405
▁lock 731
orgt 555
▁vor 188
reiche 2088
▁dringend 2626
kommt 1783
▁südsch 2786
▁einander 2794
▁strand 3246
unterschiede 1716
leibt 3392
ina 962
▁stellenweise 487
▁mitunter 744
▁mittelmeerluft 2934
▁ir 1972
lage 1371
▁käl 781
▁fünf 311
aden 1370
▁gleichzeitig 1625
▁gott 3160
▁stabil 1866
öger 2725
▁hä 671
▁mecklenburg 2210
▁zentrum 2224
▁abgeklungen 3527
ing 1448
öhnlich 2014
ptember 1089
▁ihn 3356
▁dauerregen 1081
iges 752
kandinav 993
▁tiefausläuf 2381
▁kräftigen 973
▁schnee 207
▁sonntag 362
uld 2910
vorhers 258
hältnis 2988
ehn 159
kbar 1051
▁mai 1106
ola 2455
unkt 1153
▁beginnt 886
▁vielleicht 1073
▁nordital 3200
▁übermorgen 2828
▁süden 163
▁tagsüber 894
▁geworden 3513
▁dez 1066
▁mitteleuropa 974
▁schneeregen 1112
teil 1584
▁jul 895
ner 330
▁schwachen 2857
▁schwerpunkt 2648
▁abkühlung 1735
wär 1181
▁wechselhaft 529
brei 1467
kü 913
llt 2509
▁flu 3378
▁kreta 3193
▁nordöst 1319
▁überwiegend 901
▁tal 2492
windig 3361
en 37
▁kommender 3376
mark 1504
sen 458
▁da 79
furt 2427
sgebiet 3092
▁dro 2734
▁klarer 3331
▁bewöl 598
her 771
▁weitet 2550
▁abkl 2556
▁überfr 2827
▁aber 194
▁betri 3490
nis 2709
▁ges 1550
▁immerhin 1254
ft 132
▁uckermark 2252
tausend 2718
▁fern 2758
▁wa 3141
aut 3217
ometer 2273
▁bestimmt 899
▁c 3114
orm 2055
▁sturmböen 462
▁nachlassen 2511
hält 2182
▁strengen 3447
eh 91
ogen 1581
▁sozusagen 3642
▁beim 2076
▁start 2193
oten 1689
▁kräft 276
▁regenmen 1901
▁regens 3239
▁nasskalt 2413
▁ostern 2859
▁berchtesgaden 3320
▁sprü 1995
▁starken 946
▁mit 118
▁bucht 1588
▁regenfälle 837
▁sin 1092
ge 398
▁ern 2175
▁sturm 397
doch 2131
▁direkt 1801
ürlich 2212
▁angeneh 2015
▁glatt 1004
▁morgenstunden 3225
▁tiefen 2852
▁nächste 1205
werte 2020
eis 1696
▁breisg 809
▁ad 2738
▁wolkenfelder 1041
▁abgedrängt 3526
rö 645
▁driften 3604
tet 324
▁mild 937
▁ex 3383
▁schneeschauer 1034
▁balkan 1792
▁milde 928
tag 138
eden 2693
▁überhaupt 3634
ch 39
el 115
▁andauernden 3487
▁beeinflus 1913
▁dank 1533
▁mittag 1826
▁hoh 1390
▁norwegischen 3474
▁tiefsttemperaturen 2642
▁zäher 1678
rechend 2923
▁nach 109
▁abschw 2863
▁anderen 2107
▁ostfriesischen 3518
eilung 3243
▁anfangen 2205
▁dage 916
▁hochnebelartige 3534
wischen 1374
fan 630
▁entsprechend 2386
▁ausgedehnten 3588
▁abends 1766
▁alpenvorland 3308
▁heft 725
▁tauwetters 3439
▁wärmegewitter 3442
eiß 728
▁gu 427
elt 1760
▁atlantikhoch 3400
▁durch 658
zeich 3104
etiefs 2499
▁nordwestwind 1923
egentlich 966
rücken 3089
tl 2042
▁aussehen 3573
▁noch 137
lat 789
gr 1960
echnet 684
▁ch 1630
▁richtig 1132
▁seit 1881
▁westwind 1486
▁überigen 3259
▁dri 3125
▁etwa 1030
▁sommer 1048
▁ziemlich 1168
▁sternenklare 3584
▁gab 1820
▁nähe 2149
▁gefrierenden 1777
▁sternenklar 1950
▁funkeln 2028
▁mittelwert 3341
▁lücken 1321
▁regnet 292
▁aug 1150
▁adria 3561
▁durchwachsen 1528
▁änd 863
sse 1962
egen 674
▁freitag 342
▁neckar 2564
▁verläuft 1338
qu 923
rik 3088
▁dreht 1800
nischen 3081
artiger 2365
▁zentralen 3423
▁endet 3473
▁freuen 3286
▁gewittrig 2930
▁weitgehend 1003
▁plus 496
ah 532
▁blick 3303
▁aussichten 944
pro 3085
▁see 760
▁märz 1356
dlich 2265
▁ändern 2214
ieß 983
▁aufgelöst 2982
neit 2711
▁nimmt 1818
▁frühjahr 2596
▁wolkenreicher 2818
rgebiet 3090
pel 1294
▁wenigstens 2204
▁schneere 1096
▁hängen 2899
▁heftig 1529
▁heranfl 2901
auf 2306
morgen 2453
▁entweder 3391
▁bevorzu 2926
enden 3119
▁drängen 3603
▁ostsachsen 2861
▁len 972
uation 2461
▁lagen 1252
▁wintersp 3396
▁achtzehn 707
▁trotz 1910
▁bereich 2346
▁zweigeteiltes 3645
▁ho 970
▁wolkenreiche 2819
▁temperaturen 387
▁küstennähe 896
iert 1380
▁dicke 2472
▁pur 3297
pfen 1146
▁spielt 3552
▁abges 1358
orol 2751
▁kau 842
▁ergiebig 1244
▁nordfriesischen 2223
▁seine 2583
schaft 2656
▁frostige 1998
ost 457
ließlich 2452
▁mitte 281
tief 1125
▁weil 3142
▁zurück 1156
ratmeter 2163
▁vorpomm 1704
▁sonnige 1411
▁sonnenstra 2579
▁kurzer 2962
▁able 2864
▁hallo 3024
ffen 2033
▁druck 3124
▁folgetagen 2681
ill 2701
ze 833
▁sinken 1365
▁nordfrie 1233
▁türm 3172
▁un 157
▁warm 827
icken 1439
▁meeresluft 1786
öen 278
▁umfang 1933
▁spätsommer 2355
ertag 3121
▁ver 212
form 2446
t 25
fahr 953
heit 1871
▁neben 825
▁stu 3245
▁juni 1278
▁viele 591
▁schneefall 866
üsse 3113
▁häuf 688
▁schwacher 523
▁samstag 368
▁deutliche 2371
geräumt 3651
▁oberfranken 2440
bar 879
▁lö 1827
landen 2820
▁gewitt 1028
▁durchsetzen 3530
▁vierzehnten 1666
e 10
▁nordrä 3196
▁grauer 3214
▁don 297
▁ster 995
stälern 3139
▁herein 2874
▁temperaturniveau 2561
▁prozent 3432
▁stürmisch 502
▁orkanstärke 3386
ehalten 1980
▁nordwesten 298
▁oberfran 2352
▁versorgt 3549
▁zugs 3250
▁erdru 3271
cht 204
▁krä 275
▁weniger 1058
▁wollen 2593
▁bodenfrost 1260
▁große 1938
▁mittel 465
▁starkes 2566
urger 2809
▁zeigen 1059
eien 1093
mäßig 3596
tig 2278
▁trockenheit 2190
undlich 215
erungen 2282
frost 1035
▁behalten 2154
▁hochnebel 986
öhn 1623
▁irgend 3489
uar 1090
uf 357
sä 3091
la 94
▁bewölkung 2027
▁wein 2744
▁phas 2847
▁großbritannien 1437
▁nordrhein 1979
▁gefrierpunkt 1255
▁zweiteilung 2079
▁nordse 2061
▁frisch 343
rhein 430
stell 1253
▁lichtbl 2023
▁denn 1027
▁überschwemmungsgefahr 3655
▁überquert 1577
trop 1263
▁freundliches 883
▁siebenten 2884
▁kalte 1283
ttember 1629
▁steigenden 2931
▁qu 1163
nden 3136
▁schwül 1412
▁unterwegs 1135
ellen 2694
▁null 626
▁andauernder 3488
stem 2477
▁dennoch 2924
ieselt 1334
uer 682
▁elf 743
▁tieferen 3307
▁vierunddreißig 2191
▁übernimmt 2415
hangen 1579
▁lokalen 2952
▁dieser 860
▁steigen 1110
▁abschwächen 3038
▁lo 608
▁sy 1814
r 23
▁tropfen 1190
▁wochenmitte 3354
▁spanien 2124
läge 1421
▁wetters 2823
▁auflockerungen 2245
▁überall 746
▁finn 2761
it 78
▁wand 2147
wegen 2141
▁tröpfelt 2664
▁abschnit 1328
uss 621
älern 1484
▁dreiundzwanzigsten 1564
▁fließt 1215
▁auffrischender 3504
▁mei 270
▁dagegen 921
▁ausnahme 2998
ister 3069
schie 741
▁einer 1351
▁einhundert 2793
frankreich 3494
▁kleines 1679
▁böig 1676
umen 3357
srück 2459
▁reichlich 2127
fil 3060
▁pass 1832
hessen 2700
lä 473
tt 1373
▁zurückziehen 2610
rän 3304
ürm 3112
▁elbe 1136
▁griechenland 2256
▁umfangreiche 2633
▁alpenraum 2337
onders 712
▁bringt 662
▁frische 1417
▁gebir 3333
▁wei 294
▁westfal 1997
▁wur 2480
▁regenwolken 824
eutschland 229
ritann 1392
▁ö 407
ember 723
stein 1185
▁mäßig 286
erts 2731
isch 152
▁ausgeb 3266
▁rauskommt 3429
▁ebenfalls 2102
▁fielen 3563
▁heranzieht 2122
▁frankreich 1309
▁führ 2244
▁osthälfte 706
▁sauerland 1290
eu 95
▁bisschen 537
m 18
▁kleine 1850
▁angenehme 2416
▁bayerischen 1395
▁bed 1522
▁bayerns 1494
▁sonntags 2869
▁ström 782
▁verstär 2538
gebiet 975
gland 527
meert 2360
▁sonnigen 2177
▁südöst 1758
▁stra 1323
▁steigende 1940
ppt 2625
▁südwesteuropa 2587
▁könnte 1663
ahl 2263
▁mittelgebirgstälern 2441
▁uh 3117
▁frankfurt 2936
▁kurz 1728
art 642
▁schönsten 3470
▁böen 461
agel 1446
undzwanzig 248
etter 133
▁nordwind 1895
to 2717
regen 652
▁kurze 1537
▁von 192
▁thüringens 3485
ringt 2870
licher 1477
sg 625
▁etw 246
▁mittelgebirgsraum 2660
nlich 851
▁mäßiger 501
▁unter 452
▁süd 100
▁längsten 1918
▁zunehmend 1061
▁führen 2972
▁vorerst 2326
▁phasen 3036
▁august 1179
ikt 1544
▁bis 103
▁unbeständig 1617
▁ändert 1001
ig 69
▁flaut 2667
lücken 1403
▁bayrischem 2897
niveau 2454
▁entsp 988
ppe 3448
omm 328
▁gen 1406
agt 1697
▁spiel 2568
▁erleben 2658
enzen 2730
▁pos 2845
tla 599
▁ems 1853
▁währenddessen 2911
▁relativ 1436
▁regenwetter 2518
▁verkehr 1984
an 114
▁tornad 3022
▁änderung 2215
▁zei 600
▁frühlingsha 2118
▁verwandelt 2408
▁regenband 1644
▁heran 680
rä 251
▁füh 1902
▁gipfeln 3501
▁manchmal 3417
einflus 1890
▁gefährliche 2401
▁oberp 2881
▁klingen 2383
zon 1343
lleicht 1071
ust 1126
himmel 3065
▁fünfunddreißig 1911
▁kä 2777
reifen 3226
kreich 3073
▁begann 3368
▁rü 1382
▁trockener 1416
▁windstärke 2319
▁wolkenfeldern 2103
▁bei 301
▁verkehrsbehinderungen 2683
▁flus 2488
▁gesch 1886
▁allerdings 670
▁man 779
reck 1757
▁wenigen 2084
▁heftige 990
▁abziehen 2343
▁entwickeln 930
am 277
▁d 40
▁rieselt 1764
▁nasskaltes 2634
▁montag 417
▁nicht 483
▁schauerrisiko 2527
▁sechzehnten 1718
▁übernehmen 2979
▁na 1637
▁nordischer 3198
▁neunundzwanzig 1568
▁verhältnismäßig 3637
häl 235
aus 683
zig 1549
▁bö 1203
▁donner 346
▁einundzwanzig 934
sten 65
▁tja 2289
▁nordosthälfte 1140
▁vormittags 1935
▁dänischen 3464
▁gegen 853
▁frischt 1768
▁übergehen 2965
▁st 142
fach 2032
boten 3048
▁auflösung 2329
fre 2443
▁unterschied 848
ierende 3254
rie 1874
▁damit 1116
▁nebels 2865
▁niederrhein 836
▁strahlen 2613
fähr 1402
ben 148
▁gew 2168
▁gan 3157
▁minusgrade 1835
▁einhund 2792
▁weiteren 2186
▁sam 367
▁wenigsten 2203
▁ungetrüb 3437
schen 530
▁mildere 1207
▁zwanzig 553
▁das 173
▁nachmittagsstunden 2195
▁gewittriger 3410
▁durchgezogen 2592
▁nordost 758
elauflösung 2266
mittag 388
nord 2710
▁allgäu 1171
▁saar 1634
lt 1687
zen 1969
▁entspannung 3404
zeit 819
zent 2723
▁all 191
zoren 1877
ießt 1176
▁windgeschütz 3547
äu 750
ifft 3070
▁orkanart 1288
▁seewind 2595
igung 2490
kl 2133
nungen 956
▁schleierwolken 1501
wetter 402
▁am 83
▁ebenso 3399
▁vorüber 1235
öhnt 2935
all 327
ruck 450
igen 381
▁fünfhundert 1989
usitz 943
cke 2843
schn 1234
▁zumind 1131
▁reifglätte 2662
▁tiefdruckeinfluss 2104
ol 122
▁blü 2544
▁grö 1377
▁mind 3147
▁ro 1879
weiten 2814
n 19
▁südens 3258
ff 2695
fur 2267
vert 3099
▁durchweg 2591
▁fün 304
▁prä 2542
▁übrigen 870
olar 3082
▁groß 1049
▁vielerorts 1075
▁breit 2893
▁orkanartige 1367
▁vorschein 2324
▁aufklaren 1852
▁äu 1065
ert 366
▁fuld 3166
oren 1512
▁südwest 588
klus 2703
▁hinaus 2376
▁verhältnis 3283
kommen 1141
ung 249
sb 2041
▁vergangenen 2420
▁atlantiktief 2231
▁ihren 2892
me 550
▁letzten 2016
▁russland 1650
nen 325
wärts 1198
▁hochdruckzone 1930
gegensätze 2262
▁hitzegewitter 1675
ehinderungen 2673
▁sorgen 1184
tsp 963
▁folge 2220
▁tiefdruckzone 1937
▁saarland 1795
▁frühl 1571
isik 1552
os 2038
ann 369
▁überfrierende 3572
▁hochlagen 1601
dehn 2690
nemark 1825
▁derzeit 1348
▁wochenhälfte 3353
über 162
▁kräftige 531
▁wün 821
▁text 2665
▁naja 1796
▁ra 890
imal 2037
▁schleswig 1208
▁westlich 1836
▁morgen 119
▁spätsommerwetter 3529
▁östlich 1934
ehr 300
▁überqueren 1542
ger 1036
▁glättegefahr 1849
eht 273
▁baltik 2112
▁bo 881
▁reif 2409
ärm 584
▁verantwortlich 2676
▁gestreck 3458
▁traumwetter 3542
▁zahlreicher 2432
▁schottland 1502
▁trübe 1366
stellen 2570
al 141
▁jedoch 2217
halten 1124
▁einiges 2790
▁west 445
▁ost 303
▁frühlingshaftes 3557
▁übern 1982
▁folget 2606
▁schneit 548
▁blä 1189
▁kräftig 524
▁laufe 655
immen 1661
▁nordseetiefs 2640
▁verwöhnt 3461
reten 1978
erung 1747
ängt 1509
estens 3230
▁böigen 3419
▁rand 2280
sst 914
frei 1438
▁zweiten 1238
▁bleibt 306
▁rot 2632
ock 2039
flut 3506
eite 1751
▁blitz 1326
▁schö 520
agen 475
▁richtiges 2546
▁polen 1485
imm 482
▁teilweise 231
▁wurde 3002
▁mengen 2984
▁kältere 1532
lar 350
▁wiederum 3293
▁einzel 373
geteil 2967
▁recht 564
drei 872
▁vo 554
pitze 3086
▁gefähr 1479
▁kräftigem 1664
▁schien 3174
tal 1965
▁außer 2762
▁draus 3127
▁wenn 1154
▁den 111
är 785
▁halten 1094
▁nordatlant 2672
▁wünsche 829
▁mainz 3395
▁fernsicht 3020
uft 254
▁acht 393
▁nähert 1860
men 1113
eine 1166
▁darüber 2243
feld 2876
▁kräftiger 765
ats 2074
hnach 2447
▁orkan 838
▁größ 1539
ja 1469
ich 59
ühl 3111
▁kl 1040
bare 3050
ord 86
▁nä 1753
▁profitieren 2630
▁heiß 772
▁fällt 421
▁schauer 160
▁einunddreißig 1554
▁streifen 1680
wind 612
▁leichter 849
▁gewittrigen 2925
▁liegt 856
▁frost 471
k 16
▁meine 2053
▁nahe 1540
▁schneeflo 1457
▁wetteraus 2315
kay 2270
▁unbeständiger 2375
▁werden 375
▁witter 3016
enburg 1221
▁irland 2248
▁österreich 2913
▁brauchen 2978
äum 3107
▁ergie 796
▁sylt 1956
▁wandert 2424
▁herbstst 2932
▁grad 107
▁gebie 403
▁gewittr 1084
▁nat 2148
▁niedersch 1332
eit 223
spiel 1946
▁ist 168
in 123
lieben 3078
emm 1646
▁gi 290
▁wetterregie 2317
fall 922
▁die 85
▁straßen 1500
▁auf 199
▁eben 929
▁azorenhochs 3531
▁gerade 2200
grenze 1230
ein 68
▁hoch 334
▁daz 540
jahr 2449
▁turbulenzen 3012
wohl 2123
geb 406
▁landesteil 1282
▁fünfundzwanzig 865
▁dahin 1513
neh 3080
▁best 635
▁zdf 2294
f 11
rm 313
▁vorderseite 3510
▁neiß 1817
▁sonnenhoch 2358
lichen 459
inden 2844
nter 905
bereich 2166
▁nieder 585
▁niedersachsen 2361
▁besserung 2954
▁men 2152
▁klaren 1992
▁zwölf 669
▁vierzig 2559
▁mosel 2108
▁weiteres 2557
▁wetterdienst 932
▁allen 643
▁nun 266
▁meter 1080
rüb 3087
▁atlantischen 2902
ause 2308
▁vorher 2325
▁äußersten 1121
▁ankommen 3232
ort 361
▁allzu 2831
▁dau 2295
▁einiger 2789
olen 1478
▁verlä 1324
▁er 198
▁raum 1724
bst 1022
schein 464
▁entfern 3451
▁ext 2096
▁üb 864
▁starke 1044
ischend 1481
weh 1231
fen 703
entlich 2470
ße 2724
▁per 3296
▁teils 479
▁dauer 807
▁februar 1087
▁trüb 991
▁kühlerem 3344
▁zwöl 636
▁anfang 1929
ärk 1258
▁sonst 202
▁italien 2255
▁regenschauer 745
▁ungewöhnlich 2414
▁gewar 2807
▁dänemark 1862
bl 1737
rit 1052
▁ma 647
▁vierundzwanzig 1076
▁mehr 440
äl 200
▁aktu 2423
▁sonne 164
▁nächsten 491
▁verschär 2961
▁niederschlag 2945
▁wesentlich 3001
ade 2130
▁windgeschützten 3660
▁tschechien 3509
▁zwanzigsten 2002
glich 573
▁dauerfrost 1672
wochenende 2253
▁land 568
▁wer 308
▁sommertag 2608
▁stabile 2631
▁höhe 2905
klungen 3507
dass 1738
▁quer 2469
▁mischung 1122
▁erstmal 1104
▁rieseln 2439
rübt 3444
temperaturen 1329
▁warmen 2597
▁einige 601
▁vereinzelt 535
▁herrliche 2943
▁kal 571
▁schneever 1236
nde 3135
▁schneeflocken 1466
▁wolkenver 1594
tzen 3440
vor 237
ler 3074
▁machen 718
isiko 1576
▁erwartet 1000
▁ihnen 610
▁konnte 2996
▁temperatur 355
bayern 1311
▁anhaltender 2393
ebe 2830
bei 345
ehnt 1903
▁akt 2146
mezzo 3350
▁auftauchen 2970
▁sonntagnach 3325
▁hochnebelartig 2999
▁geht 657
gramm 3421
rin 377
ark 1379
▁warme 1101
annen 3219
▁dieses 1138
▁jahreszeit 1952
▁danach 1534
▁vollem 3352
▁allmählich 1312
▁dün 2051
▁großen 2928
▁mittelgebirgs 2367
er 38
▁steht 2880
gem 3062
▁zustande 3629
▁kölner 1951
▁übergeht 2407
ation 2183
▁wechselhafte 2086
▁zahl 2293
rü 1546
▁elften 1665
▁wobei 2006
▁einschließlich 2655
▁tau 1025
▁zusammenkommen 3443
▁leb 2812
▁sechsten 1603
▁dort 370
▁berge 3319
▁ungefähr 3492
ent 1202
▁großbritann 1431
gebieten 3380
▁gebiete 3335
ern 438
▁achten 1695
▁gesam 1887
▁fulda 3614
▁schwächer 2249
▁überwie 769
▁dichteren 2896
▁sonnenstrahlen 2679
▁stunde 2817
▁klein 1391
fang 1774
▁überquer 1518
▁lösen 1957
beginn 2659
zial 1809
▁richtung 347
▁alle 1483
▁lockern 1844
▁begleiten 3476
▁freundlicheres 3363
▁niederschlagsgebiet 3583
▁europa 2143
wit 174
▁zur 715
▁begleitet 2025
▁mitternach 2310
▁meteorol 2907
äh 333
▁meisten 1597
kan 749
▁auflöst 2836
▁stre 2815
▁trüben 2937
▁zäh 1318
▁gr 3155
▁niederschläge 1434
▁mittl 2064
▁entspannen 3403
▁ei 665
v 27
ungsweise 2239
▁beschäftigen 3650
▁größten 1945
▁schl 1129
gnet 2697
▁besonders 717
▁ausbrei 1519
se 97
deck 1281
▁einstellige 1642
▁produ 3433
ema 2314
▁herbststurm 3581
▁emsland 1335
▁ergiebigen 2095
▁nordwestlichen 2895
▁okt 971
▁liter 1900
▁könnten 2886
▁wolkenverhangen 1627
▁kommende 2871
▁unwetterpoten 1839
▁trübes 2922
▁trockene 1600
wa 2462
▁eines 1010
britann 1400
▁al 203
▁zweiundzwanzigsten 1604
sicht 957
▁regentropfen 1291
▁schneefallgebiet 2098
▁entstehen 2242
▁sturmstärke 2872
ü 35
▁hochwasser 2250
▁sicherheit 3571
luft 840
▁tiefer 1450
alten 722
▁nachts 2170
▁verdichten 2024
▁abseits 1218
▁westen 193
esgaden 3162
▁nieselt 1754
ä 33
▁tiefstwerte 3500
▁gewitterfront 2321
▁regnen 710
▁über 175
▁drä 3123
▁eisregen 1788
▁sommerlichen 3409
▁saale 2652
▁mor 2748
▁zuvor 2821
kei 2134
▁blauen 2986
▁ober 468
ichten 806
geh 767
▁wetterbest 2316
▁nachmittag 463
▁wohl 1458
▁neuen 1173
▁durchs 2366
▁einsch 2303
▁ohnehin 3658
▁richtigen 2855
▁siebzehn 654
or 52
</s> 1
▁erfreulich 3594
▁böiger 1622
▁freundlich 216
reift 2805
▁mün 2481
▁autoschei 3564
▁herausgegeben 3577
gebir 518
▁gewitterträcht 3514
▁skandinavien 1067
▁auflo 1907
▁dan 1151
▁köl 1640
▁kühl 319
▁stat 2522
▁lei 490
▁nordwesthälfte 801
ial 1806
meter 1213
▁ausgesch 3267
rtlich 504
▁bald 2485
schnee 1899
onten 2757
▁ansonsten 830
▁ruhe 3387
▁wird 170
▁inten 2301
▁himmelsb 2908
▁unwetter 526
▁einen 500
▁alpennähe 1327
▁gefallen 2514
▁wetterdienstes 977
▁zeitweise 691
▁fr 279
▁immer 512
▁herbstlich 2387
llem 3215
▁freundlichem 3287
ßerd 1585
▁setzt 1345
▁tälern 2290
▁witterung 3590
ücken 959
▁nordmeertief 3545
rech 1026
▁hat 834
▁klar 394
▁zögernd 3025
▁neblig 1074
annung 3328
▁luft 312
▁herbst 1134
▁unsere 3306
▁wärmebe 3358
▁zähem 3426
▁en 489
▁min 314
▁woch 425
▁dessen 3338
▁hohe 2017
▁württember 1683
▁zun 536
▁wärmsten 1925
▁zwei 395
seenähe 2507
▁tro 302
falls 1430
▁rei 1812
▁nordseeinseln 3497
ber 101
bruch 3013
▁angenehmen 2947
teilung 2018
▁davor 2296
ießen 2379
▁erste 1224
lag 955
▁et 245
▁orkanartigen 2939
▁p 240
df 2264
▁intermezzo 3496
mit 356
▁stürmischem 2576
fit 1805
üd 99
▁aufgeh 3273
▁norddeutschlands 3371
eutung 3265
▁momen 1677
▁darunter 2971
▁eigentlich 1285
uen 1967
▁sp 409
▁folgt 1784
einseln 3168
kter 2450
▁aufz 3272
hein 336
sar 1963
lätte 835
aten 3046
▁tagesverlauf 1616
▁fall 552
▁glatteisregen 2117
steigen 3140
▁eher 1195
gegen 1993
lig 1064
reta 3182
ucht 1548
▁so 241
etzen 2580
verlauf 1615
▁bal 1444
▁gebieten 3336
ug 2279
schle 3223
▁senken 3133
rz 1315
▁zöger 2776
▁wolkenschle 3249
stens 1590
ör 981
▁autoscheiben 3661
▁strecken 3570
nders 693
▁dass 936
▁lokal 1569
▁turbul 2668
ief 234
▁erwärm 2834
▁ins 1271
▁regenmengen 2026
▁rund 2322
▁breisgau 811
ckermark 2235
▁dü 2733
▁sogar 868
▁trü 1256
oßen 3084
▁mittelgebir 663
ran 892
▁denen 1898
▁vorpommern 1736
gewitter 1523
wärm 2464
▁südost 613
▁windgeschwindig 3548
▁liebe 592
älzer 3275
▁hall 2771
och 92
▁temperaturunterschiede 2347
ick 721
▁dicht 1232
lenburg 2135
▁schwäch 1985
▁dreizehnten 1491
bringt 3049
skandinavien 2276
ang 2802
▁niesel 1885
▁rauf 2010
▁schau 3173
▁steigt 1936
wald 1162
▁hitze 1186
▁dann 195
wöhnlich 2046
▁harmlo 2258
▁lassen 1300
▁skandinavientief 2385
fft 2444
▁höhenlagen 2680
▁äh 915
äck 1878
▁bevor 1031
▁dre 1748
▁wärmebelastung 3647
▁be 322
▁aufklar 1072
▁seen 3359
▁unterschiedlich 1531
st 45
▁halb 3180
temperatur 338
▁lockert 999
▁morgens 2804
▁neunhundert 2572
▁and 1266
▁sinkenden 3428
▁harmlosen 3520
schig 3222
▁bevorzugt 3041
▁letz 1354
▁dien 433
sung 1743
▁eifel 1033
▁graupelschauer 1789
tik 2043
▁dichten 1331
▁strahlenden 3556
▁unser 783
es 57
▁zusamm 1516
ra 89
▁örtlichen 2577
▁atlantiktiefs 1948
▁normal 2628
▁oder 250
▁weite 1767
per 331
▁inklus 2779
▁münchen 3536
ische 2067
▁abgezogen 2344
▁gewitter 179
urch 623
▁tsch 2158
▁anhält 3234
▁genießen 2949
▁tiefdrucksy 2607
▁zentimeter 1538
▁riesel 2323
alb 1056
ieb 3149
ischem 2318
aup 1515
▁vord 2162
▁inseln 2060
▁frostig 1016
▁aprilwetter 3415
▁blauer 3508
▁wochenbeginn 2888
▁siebenunddreißig 3342
▁gepäck 2657
scheinlich 965
sent 2879
stunden 1884
▁läng 460
ar 131
▁herbstwetter 1620
▁linie 2813
▁wenige 1712
▁reg 213
▁schweren 1986
▁herbstliche 3414
▁s 41
▁island 1819
ober 969
▁abschnitte 1339
▁ausgedehn 3005
▁kältesten 2619
▁ostbayern 2860
le 1742
kand 979
ersituation 3291
▁vermehrt 2994
▁tschüss 2645
du 3051
▁auffr 1705
wehungen 1249
ez 1063
▁oft 1223
ehrt 2552
ges 1200
▁tornados 3592
▁überschwemm 1686
▁dunst 2429
▁ostwärts 1451
gsam 754
ortlich 2563
▁andauernd 1953
▁schwer 2180
x 29
▁wettervorhersage 261
▁dabei 353
▁wetterauf 3252
esten 126
ßen 1344
▁begin 761
▁dienstag 434
▁letzte 1730
▁bess 1607
▁unwetterartigen 1781
stär 2478
▁wärme 1526
trei 3096
h 13
orgen 116
ischendem 2951
pr 1114
tags 3242
ften 1011
▁torna 2768
unk 1893
▁atlantikluft 2011
▁frostfrei 1487
▁alles 1830
▁fängt 1551
▁lockeren 2374
▁locker 1720
▁raus 1388
vorland 3295
▁unwetterartige 1428
hregen 1961
▁hervor 3340
▁unwetterwarnung 2013
rand 443
▁nachthälfte 1592
▁schneef 576
▁wechselha 495
▁südwesten 389
▁allenfalls 2898
▁schneeregenschauer 2609
reme 2496
▁langsam 756
▁september 1105
ive 1785
at 268
nee 1897
▁gekommen 3229
▁mildes 2921
unden 874
ßt 2048
▁eins 2788
▁beruh 1279
▁leichte 1928
▁metern 1393
mp 2707
▁lenken 2218
▁harz 3181
l 17
▁gelenkt 3377
▁tsh 3171
▁april 1142
▁oberschwaben 2678
▁chanc 1734
falz 1790
▁tiefsten 2853
▁südwestlichen 2362
iger 380
löst 2705
ül 1375
▁ausnah 2425
▁peuap 2848
▁verändert 3575
weit 3237
▁bew 580
▁rum 3261
▁muss 666
▁vorsicht 997
▁hell 3372
▁sonniges 1525
hlen 1909
▁zwölften 1841
▁wür 1587
▁zumindest 1143
▁nordrand 3197
z 31
▁or 820
▁sachsens 2611
▁tur 2491
▁vormittag 846
tsächlich 1655
▁westeuropa 1660
▁winterwetter 1429
imeter 1468
▁weihnachten 3550
il 274
▁vergleich 3499
igem 2489
▁seinem 3351
▁temperatursturz 3323
igt 1222
▁schon 404
▁tür 2493
▁wasser 2285
▁schein 506
▁fl 740
lant 2506
gel 1739
▁öfter 2567
▁vierhundert 2558
aufpause 2993
iel 1407
▁lich 1811
see 244
▁schön 1772
▁lenkt 1082
▁warmluft 1779
▁quad 2222
▁winterwochenende 3397
▁gep 2312
▁ausbreitet 1906
strömung 3562
▁lüneburger 3004
▁dreiunddreißig 1987
▁anhaltend 2109
▁nordmeer 1824
▁schweden 2842
▁wenig 637
▁pro 1413
▁warmer 2575
▁erwärmt 3574
mitte 2562
ulden 3382
▁grau 1169
▁me 751
lus 374
▁mil 423
gäu 1145
gegeben 3334
▁boden 903
▁auffrischen 2116
▁intensiv 3000
▁vertrei 3284
raum 1553
räglich 3305
▁roten 3479
▁e 805
ischer 2526
euap 2785
▁nordstau 2503
▁selten 1465
▁freundlicher 627
einzel 514
▁marke 2666
▁sah 3129
mlich 1023
▁schlus 3175
weise 149
▁straßenglätte 2402
ital 3183
▁stürm 426
▁uhr 3602
▁wieder 222
▁nordatlantik 2684
▁nehmen 2150
▁nächte 2080
gebirge 898
▁wol 634
erkbar 1053
▁rein 2829
▁sel 1264
▁sommerlich 2105
▁wetterlage 1595
▁dehnt 1970
▁ih 569
▁lockere 2092
▁überigens 3633
tsommer 2338
▁windgesch 2531
▁gestreift 2956
▁funk 1977
gesch 1869
▁unwetterartig 1259
hälfte 238
▁schw 221
decken 3345
▁vereinzelte 1921
▁breiten 877
▁hochwassersituation 3493
ockert 2638
▁niederbayern 2005
▁schne 181
▁waren 2085
üssen 1586
▁milder 628
▁unwetterpotenzial 1867
▁sonnig 590
derzeit 2311
gs 341
spegel 3445
▁zweigeteil 3332
leich 1305
ul 793
▁starker 1045
▁blitze 2849
▁wolkendecke 1685
esam 907
i 14
▁ander 2938
y 30
s 24
gehend 784
▁manchen 2211
▁tiefdruckgebiet 2384
band 1399
▁hochs 1454
▁einzu 3211
haup 3067
▁innerhalb 3623
▁aufzieht 3274
ria 3495
▁zwischenhoch 2877
▁deutschland 305
▁ausge 2534
▁frühlings 1793
▁später 503
▁wechselhafter 1919
▁stab 1828
näck 2272
mä 3079
bay 1292
▁regionen 1002
▁gewinnt 3587
▁schiebt 3177
▁südschweden 3028
▁dem 358
lauflösung 2225
▁besch 989
▁tiefe 2335
▁begrü 3369
▁bestand 3365
▁verh 3278
▁dom 3126
▁bayer 1303
▁hier 285
▁brä 2753
▁gewittern 546
▁no 996
▁keine 1641
▁nähern 3457
▁winterliches 3477
▁längere 695
▁nächster 2082
gaden 3063
▁atlantischer 1943
inie 2806
etzt 579
land 147
▁bislang 2797
▁strei 1480
ut 1441
▁uns 253
▁abs 1191
▁atlantisch 1362
▁gange 3611
▁lediglich 3656
▁wit 2745
▁erneut 2647
▁schneefällen 2199
▁mancherorts 1229
▁nebelfeldern 1333
▁dichte 792
▁neunzehnten 1723
hin 544
▁länger 701
▁krit 2298
▁sonnenschein 557
▁erheb 3521
▁stellt 2573
▁te 2468
assen 1520
▁schauern 534
dru 3055
sachsen 1964
vorhersage 259
▁sozus 3302
▁vers 2536
▁heraus 2875
▁mittwoch 383
▁mal 226
▁sechsundzwanzigsten 1662
▁leichten 1492
▁zwischendurch 1949
▁trockenes 1658
urs 2808
▁vier 332
▁entsteht 2966
wanzig 206
▁vermischt 3523
▁sonnentag 3346
kandinavien 1005
▁nass 1346
▁niederlanden 2894
▁sowie 646
▁umfangreichen 2975
▁frühen 2094
▁verbreitet 449
▁ruhigen 3388
▁brandenburg 1368
▁hagel 1447
▁beglei 1843
bwohl 2689
▁dire 1750
▁versch 1706
▁wechselhaftem 3502
film 3595
gehen 2268
▁anges 2811
▁keinen 2620
▁schnell 1559
olken 136
zieht 2106
▁bill 3154
▁dementsprechend 3643
▁form 2760
▁gelegentlich 967
▁main 900
▁höchsttemperatur 2612
over 3083
▁relat 1408
wanz 205
lossen 2380
xt 1744
de 513
sommer 3093
ay 542
▁flocken 1530
▁ger 607
▁k 81
▁momente 1798
▁ruhig 1780
▁verd 1831
▁voran 2533
re 74
ta 3094
▁tats 2159
ende 469
▁spä 480
▁östliche 2912
