artiger 2365
▁halbwegs 3621
nt 486
wanzig 206
▁matschig 3609
▁konnten 3532
strömung 3562
▁heiß 772
▁gesagt 1947
inden 2844
▁west 445
einfluss 795
▁tr 729
▁ital 2151
▁ehesten 1363
▁schneefällen 2199
▁kurze 1537
▁dichtere 798
▁gipfeln 3501
▁lokale 2403
emütlich 1829
▁verschwindet 2125
▁kleines 1679
ie 50
▁behalten 2154
▁gegen 853
chenland 2216
▁aussehen 3573
▁währ 812
▁ausbreiten 1543
▁schönen 541
ahl 2263
▁hier 285
▁zähe 2161
sar 1963
etrüb 3194
▁eisig 1941
▁verurs 3282
weise 149
▁frühjahr 2596
▁gab 1820
▁ster 995
ta 3094
ort 361
▁bedeckt 1912
▁hochnebel 986
▁spür 3337
▁wetterbestimmend 2438
▁inseln 2060
▁währenddessen 2911
aten 3046
▁trübes 2922
ull 622
▁tiefstwerte 3500
▁beeinflus 1913
▁nordosten 413
▁dagegen 921
ing 1448
▁regenmen 1901
▁aufgeh 3273
▁kräftigem 1664
▁näch 416
▁beziehungsweise 2260
▁sternenkla 2955
ner 330
ehinderungen 2673
all 327
mezzo 3350
▁hinweg 1722
▁durchwachsen 1528
▁nordseetiefs 2640
schig 3222
ieben 2484
vorhers 258
weg 1460
▁mitunter 744
▁trennt 3565
beg 2351
▁überquert 1577
▁meisten 1597
gesch 1869
ichtet 3163
igem 2489
▁balkan 1792
▁den 111
▁mittelgebir 663
▁polare 3640
▁trüber 2906
wärm 2464
wöhnlich 2046
ehrt 2552
tem 291
▁erzgebirges 3398
▁wahrscheinlicher 3402
▁aktuelle 3011
▁folgen 1463
▁trüb 991
▁dienstag 434
▁verd 1831
▁hängen 2899
▁reichlich 2127
reck 1757
eigen 3134
rig 2456
▁schickt 3619
echien 3277
▁überqu 1558
▁scheinen 2578
olen 1478
rücken 3089
ingen 620
ief 234
▁ins 1271
▁lie 411
▁regengebiet 1322
▁konnte 2996
den 219
enken 3118
▁re 93
britann 1400
▁rut 3263
▁schneeflo 1457
▁veränd 2838
▁thüringens 3485
▁zurückzieht 3416
▁wenigsten 2203
se 97
▁heranfl 2901
▁nebelauflösung 2339
▁liegen 987
▁quad 2222
▁null 626
▁sechsten 1603
▁nachmittagsstunden 2195
fang 1774
ree 1347
wegischen 3435
▁zunehmend 1061
gt 243
os 2038
jahr 2449
ieder 190
tz 1507
zel 272
▁momen 1677
▁sozusagen 3642
▁verkehrsb 2637
lei 862
▁mass 2482
▁dro 2734
▁im 60
▁nichts 1714
▁siebzehnten 1775
▁strömung 2909
a 6
▁glätte 917
ay 542
rächt 2334
schied 828
▁verlauf 2537
▁entsprechende 1178
▁man 779
▁tauwetters 3439
▁abkühl 1656
▁stunden 1117
▁funkeln 2028
▁am 83
▁mecklenburg 2210
▁schneere 1096
▁schwarzen 2933
as 211
itze 1079
gebieten 3380
▁lebt 2405
▁fr 279
▁wandert 2424
rin 377
▁frühlingshaft 2644
ät 1746
erisch 1632
▁südwesthälfte 1242
▁chance 3468
▁spanien 2124
du 3051
▁begleiten 3476
▁überschwemmungs 3463
undlich 215
▁sicherheit 3571
▁strei 1480
ab 1340
▁triebe 3374
▁einunddreißigsten 2115
mpft 3558
auso 2206
▁anhaltender 2393
▁bö 1203
▁fünfunddreißig 1911
▁windig 545
▁seiner 2584
▁seit 1881
ütlich 1810
▁seltener 2113
▁bergland 566
eien 1093
gs 341
▁wärme 1526
end 260
sp 1547
▁warmen 2597
u 26
▁bill 3154
▁führung 3519
▁kühleres 3343
▁los 1611
▁sonnige 1411
▁saarland 1795
▁azoren 1883
▁tief 257
▁württemberg 1861
teilung 2018
▁nied 3017
tter 3095
▁etw 246
▁oberfran 2352
▁wolkenreicher 2818
▁gewitterschauern 2617
▁niederschlagsgebiet 3583
▁ostfriesischen 3518
st 45
▁blitz 1326
▁mildes 2921
▁änderung 2215
ften 1011
hoch 1341
entlich 2470
ro 161
▁reich 2050
▁hochlagen 1601
rä 251
best 817
tausend 2718
▁wetterbest 2316
schw 1273
▁kühl 319
mm 209
▁überfrierende 3572
nungen 956
onders 712
▁genug 2616
▁harz 3181
gefahr 1192
▁stre 2815
▁wahrscheinlich 968
▁sinkenden 3428
ennen 2728
▁österreich 2913
men 1113
▁beginnt 886
▁russland 1650
▁stu 3245
▁bayerischem 3424
▁ausgeschlossen 3635
▁geworden 3513
▁rar 2916
▁herausgegeben 3577
▁gleich 1378
▁august 1179
▁schlei 1474
schnee 1899
▁denen 1898
▁bemerkbar 1062
▁nordwest 587
▁front 3309
schauer 400
▁freundliche 1118
▁bringt 662
▁dieser 860
alt 2521
▁dreizehn 641
ßig 220
▁mittelmeerhoch 3420
sung 1743
▁daz 540
▁ho 970
▁längsten 1918
▁langsam 756
ost 457
▁vertrei 3284
▁angenehmer 2981
▁ber 348
▁schwüler 3431
▁tieferen 3307
ström 2743
wanz 205
ütz 2727
▁kreta 3193
hregen 1961
▁best 635
seenähe 2507
zeitig 1497
uer 682
sischen 1875
ause 2308
▁zwischendrin 2404
stellen 2570
▁nordrand 3197
ech 208
▁ungetrüb 3437
▁regenf 768
▁andauernden 3487
▁achthundert 2348
▁äußer 1085
▁sechshundert 1920
▁ausnah 2425
mlich 1023
ommer 1657
▁verbreitet 449
▁stra 1323
▁gra 104
▁sommerlichen 3409
feld 2876
▁quellwolken 1313
▁lichtbl 2023
est 180
▁nähe 2149
▁wetterdienstes 977
at 268
aufpause 2993
▁tiefdrucksystem 2682
▁anfan 673
▁start 2193
▁sonnig 590
▁sech 371
▁luftmassengrenze 2232
ßen 1344
ärk 1258
▁ech 3115
▁gelenkt 3377
▁mün 2481
▁entsp 988
▁höchsttemperaturen 1574
▁fü 139
▁höher 1194
▁konn 2418
▁unmitte 3255
art 642
▁eigentlich 1285
▁herein 2874
nach 1688
▁an 127
▁bevorzugt 3041
ler 3074
flut 3506
▁nässe 2964
▁osteuropa 1565
ue 2721
▁ähnliche 2604
lä 473
▁württembergs 2957
ul 793
öl 392
ock 2039
▁traum 2494
▁mittelgebirge 1386
▁rieseln 2439
schnit 1308
ruar 1077
▁hitze 1186
▁pass 1832
▁nordostwind 1845
ion 839
▁glättegefahr 1849
ationen 3517
▁sonnenhoch 2358
▁schauer 160
▁betrifft 3657
▁durchgezogen 2592
it 78
▁flüssen 2209
teorol 2764
▁kühles 2188
uf 357
▁vierten 1567
▁vierundzwanzigsten 1659
ei 43
▁gro 1038
▁niedersch 1332
▁verstärken 3006
▁peuapeu 3037
risiko 1583
kord 3072
kommen 1141
▁abgeklungen 3527
▁rü 1382
raus 2504
bur 1123
▁anderes 3582
ür 786
anz 165
▁südbayern 3207
▁beschert 1060
arz 1130
▁tauwetter 1498
▁drei 299
ir 485
▁dick 2145
al 141
▁verwöhnt 3461
▁ma 647
▁weit 941
▁herrlichen 2614
kter 2450
lässt 2883
scha 2309
▁lockere 2092
dar 3054
▁grauer 3214
▁frühlingshaftes 3557
▁milde 928
▁sonne 164
▁dau 2295
▁zwölf 669
▁osten 218
▁bevor 1031
▁meeresluft 1786
▁abklingen 2677
▁endlich 2119
▁extreme 2643
ringen 3329
eis 1696
ällen 1566
▁luft 312
▁starkregen 1419
▁leider 1771
▁heute 155
▁entsprechend 2386
▁erwar 763
▁förmlich 3615
▁dann 195
▁oktober 978
▁krie 3191
ometer 2273
▁süddeutschlands 2920
regen 652
▁witterung 3590
▁erste 1224
▁feuchte 1624
▁bild 668
▁richtig 1132
lö 1440
▁nat 2148
rö 645
▁trockenen 2867
▁informieren 3543
▁besteht 1613
▁wolkenreiche 2819
weh 1231
▁abseits 1218
uchen 2044
▁ruhig 1780
tt 1373
▁phas 2847
▁sofern 3301
▁zurückziehen 2610
▁örtlichen 2577
▁schönsten 3470
▁abziehen 2343
le 1742
▁l 128
▁unterschied 848
▁überquer 1518
▁wei 294
sland 841
▁reg 213
▁kleinere 3430
▁orkanböen 1287
fte 232
leich 1305
▁danach 1534
ieb 3149
▁führ 2244
▁allmäh 1297
unddreißig 887
ontag 410
reme 2496
▁bra 1974
▁nordöstlichen 3427
quer 1372
▁bedeutung 3441
▁südost 613
eicht 1068
▁dementsprechend 3643
um 581
▁ausgedehnten 3588
nden 3136
▁schluss 3618
▁bayrischem 2897
▁köln 2627
schie 741
wolken 611
▁zusammen 1541
▁kälteste 3434
▁stärk 1593
▁rügen 1435
▁blick 3303
gebiet 975
tmeter 2139
▁wieder 222
▁kühlt 1708
▁nordost 758
▁voran 2533
ück 982
▁fünfzehn 624
aus 683
▁sonntagnachmittag 3644
wegs 1108
▁trockenste 2868
▁erken 3268
▁schneegriesel 2259
uh 672
▁andauert 3467
▁feuchter 1854
usitz 943
inn 2065
ähr 711
▁februar 1087
▁spree 1359
▁ankommen 3232
▁sonntagnach 3325
▁nordatlant 2672
dig 3053
▁abkühlung 1735
▁regentag 3240
▁elften 1665
▁aussichten 944
▁nordische 2780
▁sa 2284
▁durchweg 2591
▁verstär 2538
▁größ 1539
▁bisschen 537
▁harmlose 2651
▁schneegr 2178
ass 814
▁zäh 1318
▁temperaturgegensätze 2560
▁insgesamt 1021
▁schein 506
▁fol 1024
▁ostermontag 3576
▁tiefdruckeinfluss 2104
ri 2040
▁klar 394
ick 721
i 14
▁äu 1065
▁mitte 281
▁nordwestlichen 2895
ander 1241
▁strom 3032
▁wesentlich 3001
▁mains 1782
lossen 2380
▁blitze 2849
▁b 53
▁erneut 2647
▁knack 3482
▁nämlich 2022
▁dichten 1331
▁sauerland 1290
doch 2131
▁ham 2770
▁gesamten 1958
▁käl 781
▁warm 827
▁kä 2777
▁sommerliche 1851
▁leichte 1928
▁begann 3368
▁bal 1444
▁doch 1091
▁braust 3491
▁kurzer 2962
▁treffen 3616
▁äußersten 1121
iter 1872
▁norddeutschlands 3371
▁abschw 2863
▁das 173
▁nordeuropa 1823
▁thüringen 1944
▁ir 1972
dien 911
▁kna 1894
ießt 1176
▁anhalten 1320
▁breisg 809
▁überschw 1648
ber 101
ra 89
itz 604
eut 189
ischer 2526
ogen 1581
sommer 3093
▁heft 725
so 2716
ik 726
trei 3096
▁bislang 2797
▁daneben 2671
▁dessen 3338
▁dür 2735
fl 2132
▁sichtweiten 2959
▁baden 1473
war 615
süber 888
▁tagesverlauf 1616
▁windstärke 2319
▁wurde 3002
▁dänemark 1862
et 82
▁atlantikluft 2011
dlich 2265
▁erst 562
▁lä 405
▁herbstlich 2387
▁frank 1247
ang 2802
beruh 2508
brand 2688
▁italien 2255
▁zent 1269
▁sy 1814
▁flach 1614
▁gewitterträcht 3514
▁dabei 353
▁liegt 856
▁hervor 3340
▁nasse 3607
▁raus 1388
▁unsere 3306
▁schüt 2769
▁straßen 1500
▁tiefland 2854
▁märz 1356
löst 2705
▁strahlenden 3556
▁gipfel 2075
▁nasskalt 2413
▁zweiundzwanzigsten 1604
▁akt 2146
▁zweiunddreißig 2349
▁druck 3124
▁heut 3179
▁mittwochs 3330
stigt 3138
▁neuen 1173
▁nordfriesischen 2223
spegel 3445
▁bla 2153
▁niederschläge 1434
▁g 56
▁erreichen 1013
▁wetterberuhigung 2675
eh 91
dessen 2692
imm 482
▁et 245
▁groß 1049
▁ja 567
▁krit 2298
▁alpenrand 494
▁su 2737
x 29
auen 2307
fel 451
ran 892
meert 2360
▁aufklaren 1852
▁folge 2220
liert 2706
▁trockenes 1658
▁neunhundert 2572
▁wetter 151
▁spiel 2568
▁beginn 1495
▁gere 3159
▁schö 520
▁vermehrt 2994
ungsweise 2239
▁nordosthälfte 1140
ert 366
r 23
deckt 1787
ffen 2033
▁heißt 1304
▁harmlosen 3520
▁oberschw 2574
▁häuf 688
▁herrscht 2944
▁ger 607
ital 3183
▁ergiebiger 1721
▁nordwind 1895
▁per 3296
▁tornad 3022
▁vereinzel 517
▁treten 2766
▁wolkiger 1361
rübt 3444
werte 2020
▁wohl 1458
▁dehnt 1970
▁nordstau 2503
örm 3108
▁auftauchen 2970
▁dun 2283
▁des 418
▁lan 724
▁ton 3169
un 80
▁wetteraussichten 2437
▁wunder 1802
▁regengebiete 2519
▁zw 321
ießlich 2219
▁hol 1167
▁süddeutschland 933
klar 940
▁regens 3239
▁rheinland 1927
▁anderen 2107
▁tiefausläufers 2661
halten 1124
▁islands 3475
▁kräftiger 765
▁sorgt 563
▁wur 2480
▁morgen 119
▁ge 124
▁verkehrsbehinderungen 2683
reitet 386
▁uckermark 2252
▁kurzzeitig 2963
▁ruhiger 2600
fern 2445
kla 2702
lenburg 2135
▁au 62
▁gerechnet 686
▁verantwortlich 2676
anc 1700
▁heftiger 2373
▁trotz 1910
▁ausn 2174
mitte 2562
öen 278
▁gefrierender 1107
▁häufigsten 2099
▁weite 1767
▁vie 267
▁längere 695
▁nachmittags 1046
▁südwestwind 1214
▁wald 1037
unterschiede 1716
wig 1201
▁großbritannien 1437
▁sel 1264
eg 1314
▁freundlicher 627
frankreich 3494
▁mögen 3355
öhte 3422
ehen 676
▁geringes 3554
▁dan 1151
▁seen 3359
gnet 2697
wohl 2123
▁zehnten 1773
▁kommender 3376
ft 132
lich 108
ternach 2286
werten 2958
lleicht 1071
▁stürmischen 897
pel 1294
üsse 3113
▁abgedrängt 3526
wärts 1198
▁schnee 207
on 58
▁hat 834
▁schottland 1502
▁verlä 1324
▁einsch 2303
▁temperatursturz 3323
▁wäl 3143
zehn 186
▁unbeständiges 1158
▁nieselt 1754
ören 3109
iebe 3152
▁dritten 1749
▁siebenten 2884
▁regen 130
▁nordischer 3198
▁angesagt 3569
▁fällt 421
▁schwache 2856
▁nordsee 363
▁öfter 2567
nebel 869
zeichnungen 3600
▁sehr 525
▁zurzeit 2904
▁abgesehen 1369
▁könn 515
g 12
▁betri 3490
▁lange 2208
ng 424
▁nass 1346
landigem 2523
▁osthälfte 706
▁hochdruckgebiet 2370
ängt 1509
▁gesch 1886
▁löst 2313
imeter 1468
j 15
verteilung 3599
▁leich 649
▁intensiv 3000
▁temperaturniveau 2561
▁sch 71
<pad> 3
bru 2687
▁schwappt 3292
▁aug 1150
▁zunächst 650
▁polar 3300
▁gepäck 2657
schub 3224
▁nicht 483
▁verg 2069
▁inklusive 3026
▁ostfriesland 2649
▁erwarten 1243
▁etwas 271
▁freundlicheres 3363
▁nachts 2170
▁schüttet 3566
drängt 3057
▁wochenhälfte 3353
trop 1263
en 37
▁mäßig 286
▁somm 1029
▁gefährliche 2401
rtlich 504
land 147
uft 254
erorts 787
▁al 203
▁weil 3142
west 390
▁wetterberuh 2524
▁ges 1550
sel 365
▁vierzehnten 1666
über 162
tig 2278
fre 2443
▁chanc 1734
▁mildere 1207
▁wen 444
egt 3059
cht 204
band 1399
tsächlich 1655
▁gol 3158
▁auflo 1907
▁har 2160
▁übermorgen 2828
▁nachlässt 3216
▁bil 575
uss 621
▁hundert 2775
▁meter 1080
▁seite 2473
▁wasser 2285
▁daran 1822
q 22
▁region 918
▁böigen 3419
sgebiet 3092
▁fielen 3563
▁sturmtief 1418
▁dauernebel 1847
rie 1874
▁jedoch 2217
ald 689
▁gehen 1975
▁wetteraufzeichnungen 3630
▁klart 998
▁wür 1587
▁gen 1406
▁deutlich 709
▁eisregen 1788
lbar 3076
n 19
▁kräftigere 3349
▁mitternacht 2436
▁sommer 1048
▁strecken 3570
pomm 1690
▁komm 385
▁hessen 2772
▁verschnaufpause 3034
ellen 2694
z 31
▁sowohl 2543
p 21
▁kältesten 2619
▁könnten 2886
bert 3208
tl 2042
äum 3107
▁übergehen 2965
▁möchten 2889
▁stro 2816
▁überschwemmungen 1799
▁als 492
▁luftdruck 800
▁verteil 3280
zig 1549
von 1342
▁dreiundzwanzigsten 1564
▁zumind 1131
ptember 1089
▁zustande 3629
▁steigt 1936
▁auflockert 3586
▁schn 478
lücken 1403
ließlich 2452
▁wolkenver 1594
▁regenwolken 824
egentlich 966
▁gefähr 1479
▁neckar 2564
▁profitieren 2630
erst 2281
▁örtlich 505
▁wie 697
▁südwesteuropa 2587
▁bayer 1303
aut 3217
▁böen 461
▁niederrhein 836
▁see 760
ll 106
▁hun 2495
grade 1248
iegen 3150
skandinavien 2276
lieben 3078
meer 1032
▁größer 2948
falls 1430
▁i 48
zzo 3105
▁rieselt 1764
eich 1635
▁drin 1633
▁verkehrsstör 2980
▁naja 1796
▁seine 2583
▁gering 2589
▁trö 2287
▁richt 263
▁zudem 2066
äck 1878
h 13
▁sein 551
renzen 2372
▁breiten 877
▁england 1489
durch 3056
▁gan 3157
ül 1375
fall 922
▁verwandeln 2237
▁vormittag 846
ges 1200
per 331
▁tiefdruckgebiete 1726
ischen 323
anuar 1095
▁holsteins 3418
▁blicken 1596
▁breisgau 811
▁meiste 2549
▁bew 580
▁alpennähe 1327
▁weiteres 2557
ckt 3294
ien 309
iebt 3151
▁befindet 3315
▁sagen 1882
elt 1760
▁küsten 379
ü 35
ische 2067
▁morgenstunden 3225
▁klasse 2929
▁drängen 3603
unkt 1153
▁südlich 813
we 832
wo 1968
▁s 41
ts 287
▁orkantief 2599
küste 1175
▁begrüße 3648
▁blei 288
▁startet 1914
▁kühlen 2187
▁zugspitze 3628
▁lücken 1321
▁insg 1009
▁tiefe 2335
▁mach 586
ers 217
öh 1220
▁gebir 3333
▁glatt 1004
▁nordnord 3199
▁ergie 796
hin 544
▁schneefallgrenze 1461
temperaturen 1329
▁erhöhte 3522
▁sonnenschein 557
▁wolk 639
▁überwiegen 776
▁ebenfalls 2102
▁fünfundzwanzigsten 1521
▁tsh 3171
▁relat 1408
▁sprü 1995
▁setzen 3132
▁gewittrige 1196
▁orkanartige 1367
▁stellen 484
▁himmelsb 2908
▁regenmengen 2026
▁mal 226
▁werte 699
me 550
fach 2032
▁wärmebelastung 3647
▁zuvor 2821
▁woche 708
▁me 751
ats 2074
ö 34
kl 2133
▁ersten 1276
▁glat 985
▁immerhin 1254
esamt 1019
▁bis 103
stein 1185
▁nebelfelder 730
▁nordwestwind 1923
▁ergieb 799
▁sei 3128
▁fulda 3614
▁j 280
▁zweiten 1238
▁dauerregen 1081
▁gewittrigen 2925
▁kil 2297
▁waldbrand 2927
tags 3242
▁wunderbares 2977
▁golden 3612
stell 1253
lösung 1791
vorhersage 259
▁erfurt 3270
▁präsent 3007
▁einzel 373
▁wirklich 1762
▁wochenende 594
erd 616
▁regnerisch 1653
▁windgesch 2531
igt 1222
▁frischer 578
ru 378
▁c 3114
▁oberrhein 539
zent 2723
▁september 1105
▁gest 1643
age 227
▁unwettergefahr 1838
erseits 3289
▁lausitz 947
tw 339
▁sauer 1265
▁odernähe 2850
▁abschwächen 3038
▁erwärm 2834
▁ausbreitet 1906
▁runter 1649
▁überall 746
▁türkei 2669
▁derzeit 1348
osten 228
▁siebenundzwanzig 1422
▁tage 1355
▁atlantisch 1362
▁je 927
qu 923
▁fünf 311
▁ähnliches 1389
agt 1697
▁ab 310
▁dezember 1086
▁wechselhaftes 920
stem 2477
nebe 2165
▁entladen 2226
s 24
schiede 1669
▁autoschei 3564
▁überhaupt 3634
▁quer 2469
zen 1969
▁bleibt 306
▁getrübt 3610
▁se 606
▁nasskal 1942
▁direkt 1801
▁bergen 679
▁dreißig 791
einflus 1890
▁er 198
▁milder 628
▁dich 432
immt 775
▁vord 2162
▁t 70
▁nachthälfte 1592
isiko 1576
▁gu 427
▁unwetterartig 1259
▁tiefs 764
▁wunderbaren 2635
▁ergiebigen 2095
▁betroffen 2636
▁neuer 1239
▁wetteraus 2315
fur 2267
▁tiefausläufer 1111
▁frostigen 2353
▁südwind 2063
▁gleichzeitig 1625
▁beruh 1279
▁vergleich 3499
komm 954
▁bucht 1588
▁abgezogen 2344
▁regenfälle 837
sg 625
▁tages 854
inieren 3227
▁atlantiktiefs 1948
annen 3219
▁schauerwetter 3256
▁heranzieh 1917
▁südosthälfte 802
ertag 3121
▁rest 2782
▁heiße 1670
mäßig 3596
▁oberen 2882
▁zöger 2776
▁schauerartiger 2528
immend 2356
▁wochenbeginn 2888
▁hin 875
brei 1467
▁begrü 3369
▁wol 634
ßer 980
appt 3047
▁don 297
▁einzug 3626
▁meist 284
▁nochmal 942
ischendem 2951
▁aktu 2423
▁gelten 1286
▁wein 2744
▁ruhe 3387
▁tiefsttemperaturen 2642
▁schwäch 1985
▁entsprech 1083
▁geben 893
▁ändern 2214
to 2717
▁überwiegend 901
ola 2455
▁april 1142
▁bestehende 3366
pen 262
▁herbstst 2932
▁teils 479
rit 1052
▁stoßen 3247
rem 1039
teils 2953
▁rand 2280
landen 2820
▁deutschen 950
weden 2914
▁strömt 810
▁überg 1763
ngen 2271
lagen 1188
▁dreiundzwanzig 1057
orm 2055
▁dadurch 3186
▁schlus 3175
bayern 1311
▁nieder 585
▁bedeutet 1681
▁kälter 949
▁en 489
▁tal 2492
ar 131
ikt 1544
ann 369
▁gefahr 1761
▁schne 181
▁verlagern 1673
▁hunsrück 2670
▁h 72
eren 1183
▁starkes 2566
imal 2037
ere 372
▁winterwochenende 3397
▁sternenklare 3584
len 2704
▁sinkt 1674
▁längerem 1719
stra 2475
▁nordmeertiefs 3546
▁nähert 1860
▁reste 2783
▁wunderbar 1955
entsp 3120
unden 874
gie 757
▁em 1127
▁verbleibt 3516
▁flocken 1530
▁f 61
mit 356
be 448
▁äh 915
▁nah 1472
▁zahlreicher 2432
▁einem 961
▁stü 422
▁europas 1631
▁freundliches 883
▁bo 881
▁kaltes 3370
ste 415
trächt 3098
▁vierunddreißig 2191
beginn 2659
▁ähnlich 931
ation 2183
▁baltikum 2129
▁berge 3319
▁diese 660
▁muss 666
▁neb 289
▁stärker 1794
▁erheb 3521
▁inform 2500
▁aktuell 2663
▁wenig 637
anfang 3220
▁wochenmitte 3354
▁gut 734
▁seinem 3351
gige 2696
▁richtiges 2546
▁ging 2754
▁pegel 2846
lauflösung 2225
▁fla 2487
▁läng 460
▁nebel 317
▁plat 3298
orts 780
▁la 351
▁weitergehen 3313
sse 1962
▁zweigeteiltes 3645
▁biskaya 2435
▁stürmt 3339
▁samm 3130
▁vorbei 1983
▁zentimeter 1538
▁verhältnismäßig 3637
▁gefriert 2590
▁sternen 1619
▁vorderseite 3510
▁zahl 2293
▁sachsens 2611
▁kühlere 1043
▁donnerstag 359
einseln 3168
▁ste 467
öst 958
▁plusgrade 1524
▁geregnet 3613
▁mö 561
▁tsch 2158
ire 1740
▁einschließlich 2655
▁oster 2858
eszeit 1888
▁unwetterwar 1155
asser 1778
▁nächsten 491
▁hochnebelartig 2999
▁einhundert 2793
▁hochw 1991
▁regnet 292
▁süd 100
▁diesen 1514
alb 1056
<s> 0
▁größtenteils 2976
▁weht 352
auer 135
iesel 984
<eos> 5
pro 3085
▁blauer 3508
▁liebe 592
▁neu 533
▁mittelgebirgstälern 2441
▁münchen 3536
▁be 322
heit 1871
ießen 2379
▁ 36
▁elf 743
▁regenwetter 2518
älle 644
▁kurz 1728
▁freitag 342
▁nasskaltes 2634
▁wit 2745
▁schneeschauern 3407
▁beschäftigen 3650
▁sinken 1365
llt 2509
▁ausgeb 3266
▁deshalb 1711
▁tiefere 2336
▁kräftig 524
älern 1484
äl 200
▁darüber 2243
▁brei 570
▁milden 1996
ün 732
ürm 3112
▁übern 1982
stellige 1337
▁warmer 2575
gef 2350
▁dazwischen 1424
▁ziehen 572
▁dreiunddreißig 1987
ße 2724
▁landesteile 2391
ck 225
sch 117
zeit 819
reicht 735
▁verw 1651
▁juni 1278
▁leicht 910
▁eingel 3210
▁kar 3188
ieß 983
▁über 175
▁sommertag 2608
▁oberp 2881
▁spüren 2569
ituation 2497
▁machen 718
▁quadratmeter 2261
▁ungemütliches 3478
▁atlantische 1731
▁wolkenfeldern 2103
▁ansonsten 830
▁dicke 2472
▁intensiver 3535
▁bewölkung 2027
▁sich 154
▁vorüber 1235
▁geht 657
ig 69
▁um 777
▁stabile 2631
▁form 2760
▁blü 2544
▁situation 3131
▁gefährlich 2114
▁verschwind 2021
reicher 2003
drei 872
▁vierhundert 2558
nee 1897
▁regionen 1002
felder 543
▁vorsicht 997
▁bereich 2346
▁alles 1830
▁radar 3394
▁nordatlantik 2684
ach 84
▁bay 631
deutschland 538
▁bodensee 1462
▁alpentälern 2547
▁europa 2143
aup 1515
▁schwächer 2249
▁wolkendecke 1685
▁brandenburg 1368
bul 2442
▁häufiger 1139
▁zieh 360
wit 174
▁was 1376
ier 156
sst 914
▁inten 2301
▁bestimmen 1667
▁regentropfen 1291
▁zäher 1678
annung 3328
▁gerin 2588
uation 2461
▁adria 3561
▁herrliche 2943
einander 1295
▁südens 3258
▁angen 1353
▁reichen 1442
▁kalte 1283
▁abges 1358
▁unterschiedlich 1531
▁sicher 2825
▁len 972
▁gewitterrisiko 2320
▁sam 367
in 123
inav 992
▁ostbayern 2860
▁halt 2773
▁böig 1676
▁atlantik 939
▁genießen 2949
▁noch 137
▁besser 2019
▁fünfzig 3312
acht 2299
gland 527
▁internet 2639
▁bisher 2796
▁früh 770
▁minus 315
▁nordfriesland 1394
älzer 3275
ehnt 1903
▁gekommen 3229
▁erstreck 1922
▁verkehr 1984
▁draus 3127
▁regenband 1644
get 1868
▁hochdruckzone 1930
▁kleine 1850
▁kältere 1532
hält 2182
nis 2709
▁aprilwetter 3415
▁oben 2799
tbl 1966
▁intens 2434
▁angeneh 2015
ocken 1505
▁bes 528
gra 1210
igung 2490
▁ohnehin 3658
▁tür 2493
▁ausfallen 1298
▁elbe 1136
▁grö 1377
▁überfr 2827
▁windiger 2530
▁aufgelockert 2641
▁niedrig 3591
▁höchstwerte 2388
▁versch 1706
sä 3091
▁entspannen 3403
▁gott 3160
▁her 431
▁nord 88
lig 1064
▁streift 2621
▁waren 2085
▁weihnachts 3551
▁kann 399
▁hart 2291
▁grie 2156
▁lagen 1252
lauf 1272
▁unge 1981
▁große 1938
▁wird 170
pa 2712
▁ex 3383
sy 2458
fronten 2878
▁sicht 1702
▁schweden 2842
au 113
▁ausge 2534
tsommer 2338
▁einstellen 2795
enburg 1221
▁sonnigen 2177
stur 2741
▁südeuropa 3206
▁vorpomm 1704
ad 2031
▁weiterhin 677
ingst 2400
▁einundzwanzig 934
▁samstag 368
orden 2778
▁gel 739
▁besserung 2954
▁zu 150
▁azorenhochs 3531
▁wintersp 3396
▁kühlerem 3344
▁all 191
▁ruh 845
▁wetterchara 3253
▁tats 2159
hundert 951
▁neunundzwanzigsten 1456
▁ganze 1280
▁rot 2632
▁mitteleuropa 974
▁eintausend 3213
▁gebietsweise 429
▁bess 1607
▁zähem 3426
▁nordat 2501
▁wärmere 2089
▁saale 2652
▁einigen 844
form 2446
▁klarer 3331
▁erz 926
▁wer 308
mlo 2136
▁freuen 3286
eide 2740
klich 1741
ne 98
zeich 3104
sstör 2919
▁finden 3165
eilung 3243
▁starker 1045
▁dauert 2653
▁setzt 1345
gegeben 3334
▁ruhrgebiet 3389
▁verlag 1014
▁fran 1149
▁frostig 1016
derzeit 2311
▁hinaus 2376
▁trotzdem 2246
are 3045
▁besonders 717
▁platz 3639
▁unserem 3381
gen 55
ild 2548
▁ostsachsen 2861
▁höhe 2905
▁wes 2479
▁hochs 1454
▁vertreiben 3638
▁klaren 1992
▁westfalen 2030
over 3083
ria 3495
är 785
mer 488
liche 1212
▁pf 2071
ben 148
ket 3071
▁alpenvorland 3308
gehen 2268
gel 1739
▁neiße 1865
▁auflockerungen 2245
bay 1292
<unk> 2
▁bewöl 598
▁fiel 2759
▁herankommt 2900
▁einhundertsieben 3593
▁landesteilen 1433
▁gebiete 3335
▁schau 3173
▁auffrischendem 2960
ina 962
▁pro 1413
▁vermischt 3523
▁sterne 1227
▁übrigen 870
▁zeit 472
▁produ 3433
▁dichte 792
▁ungefähr 3492
auf 2306
▁erstmal 1104
▁gewit 176
▁nas 3144
kal 1262
ausend 2207
▁wolkenfront 3248
▁schott 1475
▁ung 1482
▁wärmegewitter 3442
▁sonnenstra 2579
▁unbeständig 1617
▁mit 118
▁sollten 3525
▁auftreten 2412
▁außerdem 1626
▁rauf 2010
eln 773
ieselt 1334
lück 3077
▁sobald 1833
▁tiefer 1450
pitze 3086
▁dünn 3559
▁nör 1148
▁auffr 1705
bar 879
▁schleierwolken 1501
▁atla 675
fal 1401
▁nieselregen 2120
▁rande 2992
▁nordwesten 298
tag 138
▁ich 778
▁feuch 1261
▁ver 212
ifft 3070
wehungen 1249
tte 818
iel 1407
punkt 1161
▁jedenfalls 1939
▁rothaar 3010
▁bildet 687
▁grenzen 2755
nlich 851
rgebiet 3090
▁allzu 2831
▁entlang 1499
▁laufe 655
haar 2699
▁dahin 1513
ralen 3202
▁kaum 850
witter 1517
▁kommt 498
nd 44
▁schön 1772
df 2264
▁steigenden 2931
▁küstennähe 896
▁stellt 2573
▁ansteigen 3235
▁dri 3125
▁übergeht 2407
m 18
▁produz 3652
licher 1477
zwanzig 247
▁schneefall 866
▁gestern 2233
etz 522
▁spielt 3552
▁weiten 1563
▁schneefälle 1078
▁regentief 3241
lag 955
▁stürmisches 2885
▁nachmittag 463
uni 1270
vorland 3295
weit 3237
rischem 2714
▁acht 393
decken 3345
▁ist 168
▁frü 698
▁nördlich 1535
▁nächten 2081
▁fünfhundert 1989
▁sehen 1443
▁ecke 3384
▁unmittelbar 3632
▁nun 266
eb 187
▁lag 3236
lant 2506
▁bekommt 2345
ff 2695
▁mindestens 3608
em 146
▁waldbrandgefahr 3042
essen 1821
▁entfern 3451
▁jul 895
▁passiert 2238
sten 65
▁bessert 3452
▁knapp 2121
▁schwach 295
▁entwick 878
▁schien 3174
▁teilen 1170
▁himmelsbild 3580
▁nor 1816
▁lediglich 3656
▁schauert 1381
▁vers 2536
lan 3204
▁hatten 2008
lat 789
▁entstehen 2242
▁skandinavientief 2385
enzen 2730
▁fuld 3166
▁tagen 509
▁kü 183
▁zwöl 636
▁neuschnee 2000
▁hoh 1390
▁also 702
▁warme 1101
▁einher 2791
▁orkanartigen 2939
nen 325
▁zusammenkommen 3443
▁einstellige 1642
erwolken 1471
▁teile 1556
ngt 1251
lastung 3205
schen 530
▁bayerns 1494
▁westlichen 1301
▁abend 283
▁hochwasser 2250
▁unwetterartige 1428
hältnis 2988
ockert 2638
▁allen 643
▁frostige 1998
reich 565
eutsch 210
▁ostern 2859
onten 2757
▁meteorol 2907
▁zustand 3251
▁frankreich 1309
▁he 714
▁hochwassersituation 3493
▁norwegen 2629
zer 3102
ober 969
▁auflösung 2329
endem 2073
▁gestreck 3458
▁jederzeit 2377
▁herum 2571
▁vorboten 3264
ssen 906
film 3595
rüb 3087
▁driften 3604
▁unter 452
ger 1036
ckermark 2235
▁andauer 1729
ximal 2047
▁tauchen 1464
ungs 1834
▁zweiteilung 2079
des 3052
▁keine 1641
▁höhen 2594
▁gegeben 2515
▁nordmeert 2502
▁gefrieren 803
▁englands 3438
▁kam 3189
▁dazu 597
▁ne 376
stälern 3139
llem 3215
▁gi 290
enende 2144
▁verkehrsstörungen 3043
gebiete 1387
▁dementsp 3324
▁die 85
ant 3218
▁nennen 2747
▁bet 1973
▁peuap 2848
▁allmählich 1312
▁kräftige 531
ä 33
▁stark 401
▁strenger 1682
eden 2693
▁tälern 2290
kay 2270
▁wetterauf 3252
ister 3069
hl 265
woch 2140
▁ausbrei 1519
nn 169
euap 2785
ug 2279
▁nordosteuropa 3379
geräumt 3651
▁schweren 1986
▁wiederum 3293
▁fünfundzwanzig 865
▁gehalten 3161
lösen 2228
▁ent 1606
▁frühling 2624
▁deutsche 2602
▁sonnentag 3346
ischem 2318
flus 692
▁schw 221
▁wechselhaftem 3502
▁änd 863
montag 2708
▁gewinnt 3587
▁biskay 2305
▁ostwärts 1451
▁schiebt 3177
▁abgesch 3311
▁informationen 3544
▁nachlassen 2511
▁sachsen 1164
▁einunddreißig 1554
▁eine 619
uen 1967
erkbar 1053
äch 307
▁freundlichen 2070
rängt 2851
▁dreißigsten 1459
▁wetters 2823
▁th 1268
▁inter 2059
tes 1876
chara 3122
chtesgaden 3276
▁rück 3262
▁or 820
▁großen 2928
▁fäll 419
esten 126
etzt 579
▁einhunderts 3029
▁lenken 2218
massen 1580
▁südöstlich 3469
▁wärmsten 1925
▁gebiet 1710
zus 3103
▁qu 1163
neb 843
eute 153
sturz 3015
▁westwind 1486
▁südhälfte 882
▁tiefdruckgebiet 2384
breitet 435
▁neue 938
▁okt 971
▁gem 3228
reiche 2088
gebir 518
llen 466
▁mor 2748
▁gelichtet 2516
▁gerät 2363
äu 750
ter 64
▁frühl 1571
▁letzte 1730
net 651
▁kal 571
▁ganz 437
▁zeigt 755
ersituation 3291
pause 2713
▁deutsch 891
▁no 996
▁gilt 1803
▁gegensä 3390
▁niedersachsen 2361
ings 632
▁alpenraum 2337
▁zurück 1156
▁anfang 1929
▁kilometer 2433
▁leichtem 1842
▁ober 468
▁neunten 1837
▁anhaltende 2941
für 1144
▁angst 3233
▁kom 3192
ale 2520
▁schwere 945
▁tur 2491
teil 1584
fähr 1402
▁letzten 2016
wie 476
▁angenehm 1855
▁kalten 2004
▁diesem 1193
annt 3327
▁zwischend 1599
▁isar 2052
ischend 1481
▁allenfalls 2898
▁müssen 2054
▁schwerpunkt 2648
ade 2130
pr 1114
▁trü 1256
▁vereinzelt 535
▁strand 3246
fft 2444
▁kritisch 2654
▁kaltluft 1426
▁zähen 2940
▁dichteren 2896
▁ern 2175
gar 861
▁dane 2498
▁hochdrucklage 2903
wa 2462
lichtet 2510
fen 703
▁gestaltet 3459
▁moment 3462
▁endet 3473
▁und 54
▁wechseln 1455
▁bezieh 2189
▁denn 1027
zieh 1182
▁gerade 2200
himmel 3065
keit 2451
▁vierzehn 577
▁beiden 2341
▁wünsche 829
▁vierzig 2559
tal 1965
▁turbul 2668
▁überqueren 1542
▁beg 678
reichen 797
▁heide 2774
fahr 953
▁nä 1753
▁schneeregen 1112
▁neunzehnten 1723
▁oberfranken 2440
▁ander 2938
▁entspannung 3404
gegensät 2251
▁auch 96
▁landes 1840
▁vo 554
▁dennoch 2924
burg 1159
▁mäßiger 501
ritten 1727
▁hallo 3024
▁erle 2328
▁atlantischen 2902
ap 2685
▁durchs 2366
▁sechs 508
▁südwesten 389
▁deutschland 305
▁eh 873
röm 766
▁kräftiges 2198
▁freundlichsten 1225
▁pos 2845
▁wechselhaften 2887
▁kräftigen 973
▁andauernd 1953
▁flusspegel 3541
▁flache 3453
▁anhaltenden 2394
▁lockert 999
sen 458
lle 2798
▁schon 404
▁graupel 1307
y 30
▁blitzen 2942
ze 833
▁daher 3184
▁herrlicher 2395
▁oberhalb 1420
▁lockern 1844
üb 633
▁vordringen 3511
▁hartnäckig 2431
▁klingen 2383
▁luftmassengegensätze 3450
▁wolkenschleppe 3627
rhein 430
▁für 177
▁zentrum 2224
gr 1960
undzwanzig 248
▁schl 1129
▁wechselhaft 529
▁warmluft 1779
▁bl 242
▁siebenunddreißig 3342
▁sollte 3524
▁wechsel 446
näckig 2428
dru 3055
es 57
▁hochdruckeinfluss 885
▁mitternach 2310
▁östlichen 976
▁bilden 1240
t 25
ill 2701
▁richtungen 759
▁auffrischen 2116
▁z 75
europa 609
▁november 1020
▁neben 825
▁mittag 1826
mp 2707
▁ruhige 2097
el 115
▁näh 1638
▁frische 1417
▁feuchtere 2240
▁schauernähe 2582
▁erhalten 2176
▁genau 2399
▁neues 1423
▁lö 1827
▁sogar 868
▁fallen 664
▁guten 556
▁ableger 3039
fluss 738
▁fall 552
geben 2194
ächt 2465
▁verdichten 2024
ss 2275
kan 749
▁neun 456
▁sylt 1956
▁kölner 1951
▁senken 3133
▁zieht 507
▁apr 1128
▁zuge 2822
ieren 1557
sstunden 2100
▁beschäft 3405
▁reif 2409
▁auflandigem 2535
▁durchwachsenes 2623
▁strahlender 3555
rop 510
▁linie 2813
▁griechenland 2256
▁ost 303
iver 2448
kehr 1807
▁macht 1137
▁selbst 2389
om 2137
▁manchen 2211
▁können 547
▁weniger 1058
▁war 477
ßerd 1585
▁einundzwanzigsten 1698
▁grau 1169
▁begin 761
▁auf 199
▁jahreszeit 1952
ehende 3203
▁späten 2196
▁zehn 521
fallen 1226
▁norditalien 3625
▁bekommen 1453
▁jeden 1109
gend 2056
▁umfang 1933
▁feucht 1573
▁star 349
▁pfingst 2421
▁sommerlich 2105
glich 573
▁tag 182
▁eines 1010
▁wind 178
▁alle 1483
▁gefallen 2514
▁tiefdrucksy 2607
▁württember 1683
▁flachland 1733
▁beruhigt 1310
▁heranfließt 3040
▁möglich 582
üt 2726
▁ausnahmen 3533
▁dass 936
orna 2752
▁donau 790
▁zweistellige 1916
▁laue 3321
ott 1404
▁unwetterartigen 1781
▁aufzieht 3274
▁ra 890
unddrei 880
urger 2809
▁aufgelöst 2982
▁auflock 2973
▁heraus 2875
e 10
undzwanzigsten 549
▁rechnen 1896
▁skandinavien 1067
▁tja 2289
▁daraus 3185
bringt 3049
▁einzelnen 1133
▁lauf 653
lung 3075
wochenende 2253
▁orkan 838
▁abends 1766
▁schwacher 523
ten 158
lin 1545
▁entwickeln 930
▁herr 1330
üh 3110
▁mark 2483
▁verbindet 3515
▁dage 916
▁weiteren 2186
▁starke 1044
tsweise 428
▁genauso 2227
▁angenehme 2416
▁zwölften 1841
ah 532
▁so 241
b 7
▁erleben 2658
▁spätsommerlich 3528
enden 3119
k 16
ehind 2505
ritann 1392
altet 3244
geh 767
▁unbeständ 871
▁erfreu 3033
▁kommende 2871
▁wolkendeck 1645
▁atlant 681
ussland 1612
▁lokalen 2952
ja 1469
▁küstenbereich 2565
sent 2879
▁ostseenähe 2554
▁schnell 1559
▁halten 1094
▁mischung 1122
▁tagsüber 894
▁dem 358
▁dafür 1152
hälfte 238
schein 464
▁stat 2522
▁berlin 1602
▁le 1701
▁schneeflocken 1466
▁sonniger 1449
▁kau 842
ähe 596
▁mä 269
▁auflösen 2330
▁dicht 1232
▁un 157
▁graupelschauer 1789
leibt 3392
▁e 805
▁steht 2880
▁ruhiges 1216
emm 1646
poten 1808
äh 333
und 51
▁nie 2746
▁werden 375
▁span 1994
▁luftdruckunterschiede 2213
▁text 2665
estört 2532
fil 3060
▁rei 1812
▁stabil 1866
▁fern 2758
▁frischen 2184
▁allerdings 670
▁heran 680
rm 313
▁tut 2288
▁sonniges 1525
▁aufgel 2068
▁meer 1257
▁weitgehend 1003
ut 1441
furt 2427
üren 2466
▁küste 736
lang 2784
▁bevorzu 2926
▁u 2049
▁becken 3314
▁gefrierenden 1777
tsp 963
▁paar 442
immel 742
▁sonntags 2869
▁geb 396
xt 1744
▁stürmischer 1385
▁schneeschauer 1034
▁innerhalb 3623
▁recht 564
▁schneesch 1012
▁unwetterrisiko 2581
▁südsch 2786
te 63
ß 32
▁geschlossen 3481
▁schneeregenschauer 2609
▁azorenhoch 2411
▁sonnenstunden 2359
▁flaut 2667
▁unwettern 1999
dehn 2690
neburger 2915
▁leichten 1492
twetter 3317
cker 1652
▁regentrop 1274
isches 2824
▁hurrikan 3620
▁winterliches 3477
frost 1035
▁wi 105
▁verh 3278
▁besch 989
▁dar 1892
stunden 1884
kommt 1783
▁bayern 737
▁dahinter 1575
ind 239
ge 398
▁marke 2666
eite 1751
▁führen 2972
▁achtundzwanzigsten 1769
nter 905
frie 1119
stau 2476
▁zweigeteil 3332
ruck 450
▁dü 2733
▁gewitterfront 2321
▁sieb 595
▁obwohl 2800
na 1628
pp 1582
▁lokal 1569
▁spä 480
sh 2715
▁dre 1748
reta 3182
srück 2459
▁versorgt 3549
vember 1007
▁kalt 696
▁sonn 201
nung 1873
erung 1747
reifen 3226
▁viel 293
▁manch 1174
fan 630
▁dauerfrost 1672
▁erzgebirge 952
▁glatteisregen 2117
ren 713
▁lock 731
▁fernsicht 3020
▁unterwegs 1135
tschaft 2719
▁abs 1191
▁irland 2248
▁wolkig 720
äll 320
▁gelangt 2169
zogen 1693
▁fl 740
▁gewitterböen 1703
▁a 42
▁kälte 1427
▁schwer 2180
▁gange 3611
ster 1636
▁begleitet 2025
▁erfre 2833
▁schwarz 1172
neit 2711
▁donner 346
▁gesunken 3446
▁mittelmeerluft 2934
iveau 2236
▁dicken 2736
iv 1050
echnet 684
▁unbeständiger 2375
▁stab 1828
▁sin 1092
ez 1063
pfen 1146
▁überhaup 3260
▁werten 2862
eiß 728
▁warmes 2598
urch 623
▁übernimmt 2415
mark 1504
▁beim 2076
▁wolkenlücken 1409
▁gefroren 2202
luft 840
hnach 2447
urm 391
▁frankfurt 2936
nord 2710
▁süden 163
ierende 3254
eutung 3265
ziehen 1536
▁nordrhein 1979
▁rum 3261
wert 3100
▁tatsächlich 2257
ial 1806
▁w 46
programm 3597
hlen 1909
▁erreicht 847
▁grad 107
▁keinen 2620
▁r 184
tlich 384
fran 2034
▁harmlo 2258
▁zdf 2294
▁wolkenschle 3249
▁runtergehen 3460
▁sechsundzwanzig 1360
▁ergiebige 1496
gewitter 1523
auchen 2801
▁gefr 614
▁mild 937
▁hochnebelfelder 1618
räglich 3305
▁höhenlagen 2680
▁ruhigen 3388
seln 1915
▁schneien 1102
▁während 816
kandinav 993
▁überschwemm 1686
gegensätze 2262
▁gewarnt 3030
▁klein 1391
▁vorpommern 1736
▁geh 2486
▁überschwemmungsgefahr 3655
uld 2910
westen 197
▁luftmassen 1598
▁allem 316
▁fast 1211
▁wettervorhersage 261
▁sp 409
erreich 2732
▁trockene 1600
▁bestimmt 899
▁land 568
ord 86
▁sturmböen 462
aden 1370
▁allgäu 1171
erungen 2282
schle 3223
▁frischt 1768
▁gar 2155
bald 1804
▁weiterziehen 2866
▁östliche 2912
frei 1438
▁erdrut 3636
gentlich 1267
▁rauskommen 2397
▁sechzehn 690
▁fre 214
▁tröpfel 2430
ürin 1405
▁hur 3178
▁östlich 1934
mäh 1293
inie 2806
▁wün 821
▁ungemütlich 1858
▁atlantischer 1943
▁kur 1187
▁holstein 1197
▁einander 2794
bwohl 2689
▁straßenglätte 2402
▁unterschiedlichen 1018
▁schauern 534
icken 1439
▁quell 1306
▁strengen 3447
re 74
zon 1343
estens 3230
▁anfangs 748
▁torna 2768
▁bringen 618
▁wenigen 2084
läuf 857
▁windgeschütz 3547
▁höchst 1245
▁durch 658
indet 2541
stens 1590
achen 2300
▁gibt 296
▁richtung 347
▁ändert 1001
unter 617
▁frühlingshafte 3505
▁füh 1902
▁schauerrisiko 2527
▁stunde 2817
▁hell 3372
elauflösung 2266
heits 3066
la 94
enkt 2729
▁stellenweise 487
▁tiefdruckzone 1937
▁vormittags 1935
▁westfal 1997
▁steigen 1110
ess 2756
▁dom 3126
rost 420
▁lü 2517
▁oder 250
▁morgens 2804
▁geschneit 2969
▁viele 591
son 804
ern 438
▁beeinflusst 2247
iefs 1561
stung 3137
gebirge 898
rz 1315
▁heißer 1846
▁größere 2230
▁überigen 3259
▁könnte 1663
▁zusamm 1516
chen 924
▁osthessen 3310
▁n 47
steigen 3140
▁bed 1522
▁hochnebelfeldern 3454
▁kühle 909
▁polen 1485
▁führt 2650
▁wo 694
tet 324
echsel 439
öhnt 2935
ühl 3111
▁nordöstlich 1396
▁bodenfrost 1260
▁es 67
▁südlichen 1350
▁böiger 1622
▁tschüss 2645
ulden 3382
klungen 3507
▁bald 2485
stär 2478
▁trockenheit 2190
▁bei 301
▁vorübergehend 1336
ha 470
gaden 3063
▁herbststurm 3581
▁tren 2765
sachsen 1964
▁feu 1008
▁zweiundzwanzig 964
▁temperaturgef 3322
verlauf 1615
atur 335
undert 2750
▁hochsommerlich 2990
▁beglei 1843
▁davon 1349
▁landwir 2585
▁sturm 397
▁heftig 1529
lassen 2062
öger 2725
▁hochrhein 3316
▁letz 1354
▁hinein 3393
▁entwickelt 2601
vor 237
zial 1809
▁weg 1511
▁weitere 1415
rigen 831
eit 223
erts 2731
agel 1446
ein 68
▁gute 2873
▁sowie 646
üd 99
▁südschweden 3028
▁sieht 1325
lt 1687
eutet 1647
▁ostseeküste 1770
aben 493
▁rostock 3601
pfel 1691
ttember 1629
▁pur 3297
▁aber 194
▁verwandelt 2408
weiten 2814
falz 1790
▁stürm 426
immen 1661
▁ganzen 1100
▁ange 2810
▁grenze 1976
ppe 3448
▁regenfällen 1932
▁nordital 3200
ischt 2525
▁höheren 1219
▁zwar 1452
▁mittelgebirgs 2367
▁dank 1533
▁auffrischender 3504
etzen 2580
rei 121
▁gewin 2987
kand 979
tälern 2460
▁momente 1798
▁erh 2327
▁mittlere 3498
▁tro 302
▁zögernd 3025
▁aufklart 1246
tember 919
▁lang 2077
▁te 2468
agen 475
fangen 3364
hein 336
▁brauchen 2978
▁riesel 2323
has 2698
▁abschnit 1328
▁drä 3123
▁ergiebig 1244
▁südöstlichen 1954
▁eins 2788
▁landesteil 1282
▁öst 826
▁taut 3406
▁gep 2312
öhnlich 2014
▁brin 436
▁sprühregen 2029
▁schneefallgebiet 2098
▁entweder 3391
▁fünften 1707
▁gebieten 3336
wechsel 2045
▁lenkt 1082
▁mittelgebirgst 2368
▁damen 2057
▁umfangreiches 3484
▁auft 1889
einzel 514
▁südostbayern 1926
▁ext 2096
▁lo 608
assersituation 3385
▁entsteht 2966
▁hä 671
sche 808
▁wolkenverhangen 1627
▁wegen 1147
▁gewittriger 3410
läufer 902
▁präsentiert 3589
temperatur 338
gezogen 1709
cklenburg 2181
▁hinter 2009
▁vorschein 2324
▁spätsommer 2355
bereich 2166
▁lichtblicke 2126
ücken 959
▁vor 188
bare 3050
▁uh 3117
▁brand 1317
▁heranzieht 2122
▁autoscheiben 3661
▁p 240
▁saar 1634
▁anson 823
ub 2720
▁finn 2761
▁zwischenhoch 2877
▁ihren 2892
bruch 3013
ungen 447
isik 1552
gebie 774
▁finnland 3021
▁tröpfelt 2664
kei 2134
▁jahr 1654
ppt 2625
seite 2277
▁schneever 1236
▁immer 512
▁geschehen 2968
▁k 81
▁gewitterträchtigen 3659
oren 1512
fit 1805
▁ang 3231
▁heranziehen 3483
chten 1510
▁frühlings 1793
▁temperaturen 387
▁metern 1393
▁witter 3016
▁südosteuropa 2201
▁regn 236
▁gefrierpunkt 1255
▁kein 1476
▁norddeutsch 2781
rik 3088
▁end 1813
▁gelegentlich 967
▁gew 2168
▁intermezzo 3496
dem 1503
▁hohem 2111
ken 110
▁ostwind 2553
▁lässt 1099
halb 1088
wischen 1374
▁glatteis 1725
▁niveau 3145
▁unser 783
▁himmel 753
▁locker 1720
ung 249
▁einhund 2792
▁nächster 2082
▁rothaargebirge 3044
▁gefrorenem 2989
▁umfangreiche 2633
er 38
▁verwand 1797
▁rauskommt 3429
▁schneit 548
▁kühlsten 1990
▁winter 908
eine 1166
▁siebzehn 654
▁entst 1859
▁mittel 465
▁tiefem 2545
▁mittwoch 383
glätte 1870
▁klarem 1177
icke 1776
▁geringer 3553
▁kräftigsten 3348
▁andauernder 3488
▁schwül 1412
▁sodass 1765
▁sturmstärke 2872
ahr 605
▁durchsetzt 2995
▁nach 109
▁irgend 3489
▁höchsttemperatur 2612
▁gewittert 2173
mä 3079
▁leichtes 2918
▁abschnitte 1339
chtig 2837
▁fünfzehnten 1717
▁oberschwaben 2678
öhn 1623
▁unten 2826
ive 1785
▁einer 1351
▁meteorologen 3579
gang 3064
▁januar 1098
▁oh 2167
▁durchziehen 3367
▁hochsommer 2229
▁gesam 1887
▁soll 2332
▁gipfellagen 2422
▁beeinflussen 2974
▁rund 2322
▁südskandinavien 2302
ratmeter 2163
▁mancherorts 1229
▁folgetagen 2681
▁zum 233
▁münsterland 3537
ieh 326
▁regenschauern 2093
▁auss 2832
▁uhr 3602
ember 723
önn 511
spiel 1946
▁wetterregie 2317
niveau 2454
esgaden 3162
▁gewitt 1028
▁aufwärts 2835
▁freundlichste 3288
mal 602
deutsch 2691
▁gewitternähe 1608
▁hö 719
▁nehmen 2150
▁flus 2488
▁atlantiktief 2231
▁kühlerer 2087
▁rhein 640
▁dreizehnten 1491
stärk 1815
esluft 1756
▁rost 3116
▁achtzehn 707
lus 374
▁folgt 1784
orgt 555
▁einige 601
▁trifft 3373
▁eben 929
hessen 2700
stärke 1864
wer 1692
▁el 560
▁leichter 849
samm 1506
▁manchmal 3417
▁niesel 1885
us 167
ächst 648
▁aus 196
▁hamburg 3023
▁in 87
▁kleinen 2615
ehr 300
▁gefrier 638
ndern 1971
▁tornados 3592
▁gebie 403
▁wetterlage 1595
äft 3106
reten 1978
lichen 459
ehmen 1671
schn 1234
▁ausnahme 2998
▁durchsetzen 3530
▁gefährlichen 2950
▁son 90
ur 125
▁atlantikhoch 3400
▁droht 3560
▁länger 701
▁erdru 3271
▁tiefdruck 1042
nähe 727
▁m 49
▁kälterer 3401
▁trübe 1366
▁wärm 603
orol 2751
▁vogtland 1103
▁morgige 3019
▁nordfrie 1233
▁schwüle 2618
▁nieseln 3480
▁wolkenfelder 1041
▁deutliche 2371
▁mai 1106
iger 380
▁wechselhafte 2086
▁kühler 497
see 244
▁franken 2221
▁unwetterwarnungen 1289
▁tallagen 3003
▁tschechien 3509
▁men 2152
▁mittelgebirgsraum 2660
kü 913
▁inklus 2779
▁vollem 3352
▁nähern 3457
▁norddeutschland 705
wegen 2141
▁rasch 2917
lo 994
▁nur 255
ch 39
üss 2467
▁üb 864
▁siebenundzwanzigsten 1713
gehend 784
ßt 2048
o 20
ehalten 1980
▁fegen 3164
▁lüneburger 3004
ckar 2540
▁sozus 3302
ver 794
▁nordseeküste 1383
zieht 2106
▁unwetterpotenzial 1867
▁wechselhafter 1919
▁tiefaus 1015
▁freundlich 216
stag 171
▁lebha 3031
w 28
lar 350
▁stürmische 716
hers 256
▁norwegischen 3474
▁fängt 1551
▁weihnach 2551
▁neiß 1817
▁zwischen 453
▁einmal 1699
▁nächste 1205
▁darunter 2971
haup 3067
änd 574
▁einzu 3211
alten 722
rü 1546
▁entfernt 3653
▁tiefsten 2853
▁einiger 2789
▁emsland 1335
io 3068
▁norden 166
wei 129
▁beieinander 1357
▁dunst 2429
▁erstreckt 1959
wär 1181
▁bestehen 1527
▁südostwind 2364
ürlich 2212
▁samstags 3326
▁dort 370
▁kaltfront 2369
rech 1026
▁profit 1856
▁trocken 329
zt 2722
▁mengen 2984
bei 345
bst 1022
etter 133
▁gewar 2807
▁anders 2474
▁da 79
▁woch 425
▁sie 224
▁mon 3146
▁achtzehnten 1931
▁entla 1302
▁gil 1755
▁fort 2157
▁kiel 3190
▁wenige 1712
▁später 503
▁ende 2142
▁nasser 2946
▁herbst 1134
geräum 3408
▁nebelfeldern 1333
renze 1120
amm 1398
▁berchtesgaden 3320
il 274
▁vielen 1562
▁regenschauer 745
▁einiges 2790
▁dürfte 3014
▁nacht 134
▁einfluss 1759
▁steigendes 3411
▁zumindest 1143
▁ebenso 3399
▁gewittr 1084
▁südostwärts 3362
▁d 40
omm 328
rand 443
antw 2512
ell 1199
▁boden 903
▁juli 904
▁mat 3148
▁mo 1316
▁schneeverwehungen 1250
▁schwarzwald 1217
▁westhälfte 948
▁verhältnis 3283
regie 2292
iges 752
angenen 2396
unken 3187
▁gestreckte 3654
zu 1745
▁einfach 2304
eits 855
roffen 2529
▁ih 569
▁ausgedehn 3005
▁dies 659
▁massiver 3539
neh 3080
▁norddeutschen 3027
▁nimmt 1818
▁tiefst 2072
▁stren 1555
▁entw 858
▁temperatur 355
c 8
eutschland 229
▁mond 3425
▁weihnachten 3550
▁wochen 559
der 120
▁dreihundert 2340
▁herren 2083
eil 140
▁der 77
▁hauptsächlich 1684
▁wollen 2593
▁zei 600
▁aachen 2739
▁nordwesteuropa 2586
▁verb 2179
▁ihnen 610
▁deut 704
▁teil 143
rück 2274
wachsen 1508
▁angefangen 3568
▁kämpft 3567
▁montag 417
etiefs 2499
▁stei 935
eu 95
zone 1397
▁wolkenband 2171
eswig 1204
▁sechsundzwanzigsten 1662
▁weitet 2550
▁erwartet 1000
▁wa 3141
▁ad 2738
▁wund 1752
▁nordhälfte 762
▁wahr 960
ält 1277
▁folgenden 1732
schei 2803
reift 2805
▁hochdruck 700
icht 185
ich 59
ebe 2830
tla 599
gsam 754
▁anfangen 2205
▁südöst 1758
▁bestand 3365
▁zwanzigsten 2002
kreich 3073
</s> 1
▁wolken 144
▁mittl 2064
▁verschärft 3585
sb 2041
▁außer 2762
urs 2808
rauen 3201
läge 1421
▁oberpfalz 3578
her 771
▁nordwesthälfte 801
▁ohne 2646
▁überwie 769
ema 2314
▁abge 2342
▁fün 304
▁sonst 202
assen 1520
▁dichter 593
▁frisch 343
scht 2513
▁unwetterpoten 1839
▁dün 2051
▁bereits 1299
▁inner 3195
▁windiges 1715
▁hoher 1364
▁haup 1591
▁köl 1640
kandinavien 1005
richt 2457
wir 2463
▁steigende 1940
▁legt 2406
▁island 1819
▁unwetterwarnung 2013
▁sternenklar 1950
igen 381
▁dire 1750
▁anhaltend 2109
▁gewitter 179
▁menge 2985
▁prozent 3432
▁südwestlichen 2362
▁vorher 2325
▁wenn 1154
▁polaren 3641
▁fließt 1215
▁unwetterart 859
▁gr 3155
bl 1737
▁wobei 2006
▁seinen 2001
▁stürmischem 2576
▁höchstens 2012
▁mildesten 2605
rikan 3598
▁pola 3299
▁westeuropa 1660
<bos> 4
▁etwa 1030
▁profitiert 2241
▁hitzegewitter 1675
olar 3082
▁nörd 1160
ag 66
▁wetterdienst 932
▁wärmer 747
de 513
wind 612
▁reißt 2410
▁folget 2606
gtland 1097
sichten 889
näck 2272
▁breitet 1069
▁sternenhimmel 3455
▁alpen 264
▁regnen 710
is 73
▁nordseeinseln 3497
▁wetterwechsel 2172
▁mind 3147
▁zun 536
rechend 2923
▁dauer 807
▁förm 3167
▁mehr 440
▁zwei 395
▁dreht 1800
ark 1379
erseite 3290
▁oft 1223
▁ihr 2891
▁schließlich 3412
▁anhält 3234
ol 122
temper 337
▁sonnenstrahlen 2679
esteil 1275
▁durchaus 1493
▁radarfilm 3649
▁pfingstwochenende 2997
▁verschn 2839
▁erfreulich 3594
▁föhn 1639
europas 1609
▁berg 3318
böen 408
▁leb 2812
▁nebels 2865
▁unbest 867
▁ungestört 2622
hangen 1579
▁ostsee 481
▁raum 1724
▁sondern 2333
▁ziemlich 1168
▁flu 3378
▁sieben 474
meter 1213
▁höch 1017
▁warnungen 1488
▁vorerst 2326
▁lassen 1300
▁nordöst 1319
▁strahlen 2613
▁freundlichem 3287
zoren 1877
▁hohe 2017
▁relativ 1436
▁nennens 3018
▁hochdruckwetter 2007
stand 2742
▁winde 1905
▁wetterdien 925
▁einen 500
▁natürlich 2254
▁westlich 1836
▁balkantief 3471
▁zugs 3250
▁chancen 1863
▁regeng 3238
▁mittleren 2419
▁turbulenzen 3012
▁vielerorts 1075
hen 2036
▁funk 1977
tzen 3440
▁ostfrie 2185
▁geringen 3360
▁spürbar 3646
▁and 1266
▁plus 496
▁gewittrig 2930
ckerungen 2234
orgen 116
zo 3101
▁aufklar 1072
▁heftige 990
▁niederbayern 2005
▁sechzehnten 1718
▁trüben 2937
▁meine 2053
▁hält 1296
klus 2703
▁westen 193
ört 2378
▁türm 3172
▁örtliche 2197
▁bleiben 1237
ara 2686
▁nordrändern 3624
gäu 1145
▁davor 2296
▁blä 1189
▁südwärts 2787
ortlich 2563
ärm 584
gst 2035
▁herbstwetter 1620
▁sternenklaren 3486
ht 1006
▁hochnebelar 2426
▁zwanzig 553
f 11
▁lockeren 2374
rän 3304
▁spätsommerwetter 3529
wald 1162
▁gewittern 546
▁nordmeer 1824
▁sorgen 1184
or 52
▁pfalz 1908
▁hohen 2398
▁eis 1284
▁ro 1879
front 1605
geb 406
cke 2843
▁massiv 3538
▁ei 665
ehm 788
and 583
wetter 402
▁achten 1695
▁höchsten 2382
▁lösen 1957
▁misch 1115
▁mittelgebirgen 815
▁sonnen 516
iemlich 1165
▁mittelmeer 1206
eder 3058
▁mei 270
▁verm 2331
oßen 3084
▁kräft 276
chnen 1880
▁deutschlands 441
▁achtundzwanzig 1384
morgen 2453
cken 252
▁ems 1853
▁niederungen 1610
▁nordse 2061
▁siebten 1490
▁zur 715
druck 454
▁normalen 3009
▁ausläufer 1560
▁landwirtschaft 3008
▁haben 499
kt 354
ringt 2870
▁verhalten 3279
▁aufz 3272
▁dänischen 3464
▁erwärmt 3574
▁wälder 3606
▁dä 1694
kühl 1572
▁unwetter 526
▁na 1637
nde 3135
▁dominieren 3605
▁vergangenen 2420
▁roten 3479
ent 1202
▁prä 2542
lätte 835
▁gefährlicher 3436
achsen 852
▁dringend 2626
▁kriegen 3622
▁vier 332
▁wand 2147
▁jetzt 661
▁bem 1054
▁neunzehn 876
▁wettercharakter 3631
egel 2392
findet 3061
üssen 1586
▁feb 1070
▁verlagert 1228
▁weiter 318
▁verliert 2840
▁südosten 364
▁letztendlich 2417
▁herbstliche 3414
bt 172
▁tre 3170
▁zeitweise 691
v 27
▁frostfrei 1487
▁stärksten 3449
▁ö 407
▁uns 253
▁frei 340
▁südwest 588
▁auflöst 2836
▁gewitterschauer 1410
▁neunundzwanzig 1568
eht 273
▁maximal 2091
▁extrem 2983
▁hagel 1447
ächen 2555
▁heftigen 1668
▁hochnebe 2192
▁reicht 1470
grenze 1230
▁posit 3035
▁bewölkt 629
▁wärmebe 3358
▁register 3285
ast 1180
▁einzelne 412
angen 1352
kbar 1051
▁frühlingsha 2118
▁auto 2763
▁sind 344
▁schleswig 1208
▁sommerliches 3503
▁thürin 1432
▁verschär 2961
am 277
▁kon 2058
▁kommen 733
▁allerd 667
▁halb 3180
▁bewölk 1924
▁ohneh 3512
▁niederlanden 2894
▁selten 1465
an 114
langt 2164
▁able 2864
▁vielleicht 1073
▁hall 2771
▁zentralen 3423
▁damit 1116
▁lich 1811
schaft 2656
▁dieses 1138
▁regional 2101
▁rheins 1425
▁größten 1945
iert 1380
dass 1738
▁wenigstens 2204
▁neblig 1074
▁streifen 1680
▁zwischendurch 1949
vert 3099
▁tropfen 1190
▁verändert 3575
▁vom 685
▁krä 275
▁nahe 1540
▁herbsttag 3413
d 9
▁thüringer 1857
▁wir 145
reiches 2890
▁nördlichen 1621
▁v 76
▁schneef 576
deck 1281
▁schwächt 2841
▁scheint 519
oten 1689
▁sah 3129
▁verläuft 1338
unde 2749
▁teilweise 231
gramm 3421
▁ledig 3465
▁kl 1040
unk 1893
▁minusgrade 1835
▁verantw 2539
▁nordrä 3196
fr 455
▁brä 2753
ige 230
rocken 3257
raum 1553
▁zeigen 1059
schi 3221
▁tun 1891
▁zunehm 1047
▁einstell 3209
▁frühlingswetter 3472
nemark 1825
▁dien 433
▁kla 1055
▁mittelwert 3341
▁st 142
▁statt 2674
▁beispiel 1988
▁eifel 1033
nders 693
egen 674
▁nächte 2080
▁dingen 656
▁tiefen 2852
▁von 192
scheinlich 965
▁angenehmen 2947
▁vierundzwanzig 1076
sterland 3456
enähe 2471
▁mittw 382
▁häufig 884
esam 907
tik 2043
isch 152
uar 1090
▁bläst 1209
▁eher 1195
▁erfahr 3269
▁gestreift 2956
▁abkl 2556
▁ungewöhnlich 2414
▁frost 471
▁phasen 3036
▁winterwetter 1429
▁ausgesch 3267
▁ihn 3356
hund 912
▁frühen 2094
gem 3062
▁vereinzelte 1921
▁breit 2893
▁glatteisgefahr 3466
▁winterlicher 2603
▁zuschauer 589
▁main 900
l 17
▁winterlich 1848
▁überigens 3633
ünstigt 3375
▁tiefausläuf 2381
windig 3361
▁nordmeertief 3545
▁orkanart 1288
häl 235
▁baltik 2112
▁großbritann 1431
lage 1371
ichten 806
▁reifglätte 2662
▁get 3156
▁rein 2829
▁flusstälern 3540
▁schwachen 2857
ende 469
▁schick 3176
▁mainz 3395
▁min 314
▁herrlich 2110
tief 1125
▁stürmisch 502
olken 136
nischen 3081
▁hochnebelartige 3534
▁starken 946
▁o 112
▁verlassen 3281
▁niederschlag 2945
▁mosel 2108
▁ström 782
och 92
sät 2138
▁blauen 2986
▁tausend 2767
▁mil 423
▁sechsunddreißig 2357
▁normal 2628
rum 2078
▁tau 1025
▁seewind 2595
▁eingef 3212
▁wechselha 495
▁thema 2390
▁anges 2811
ächlich 1414
▁dez 1066
▁kommenden 1157
sicht 957
▁liter 1900
mittag 388
ucht 1548
▁tshir 3617
▁übernehmen 2979
gegen 1993
▁umfangreichen 2975
europ 558
▁dünne 2128
fter 1578
bend 282
ör 981
▁hoch 334
▁trockener 1416
tige 3097
gebirges 3347
▁atlantikt 1570
▁orkanstärke 3386
▁windgeschwindig 3548
umen 3357
▁ch 1630
▁besten 3153
geteil 2967
esch 822
▁siebenhundert 2354
▁ein 102
▁traumwetter 3542
ont 1445
▁hochwassergefahr 2991
▁richtigen 2855
▁sonntag 362
aar 414
▁außerd 1589
▁gefrierendem 2090
anzieh 1904
boten 3048
ehn 159
▁windgeschützten 3660
▁lei 490
he 2269
▁temperaturunterschiede 2347
▁bayerischen 1395
ust 1126
