▁oder 250
eszeit 1888
kay 2270
tsommer 2338
▁dar 1892
nt 486
▁anhaltender 2393
▁eisig 1941
hen 2036
▁werte 699
▁apr 1128
▁auftauchen 2970
▁verhältnismäßig 3637
ehind 2505
▁nordische 2780
▁vom 685
er 38
deckt 1787
▁verwandelt 2408
fft 2444
▁hagel 1447
▁franken 2221
▁hochdruckgebiet 2370
▁schn 478
▁wolkenfeldern 2103
▁brauchen 2978
▁hochsommerlich 2990
▁mass 2482
▁stürmischer 1385
▁frühlingshaftes 3557
▁anhält 3234
▁bodensee 1462
▁verkehrsbehinderungen 2683
▁beeinflussen 2974
leich 1305
eil 140
▁deutschlands 441
▁lockere 2092
▁regenmengen 2026
▁veränd 2838
▁gerät 2363
stau 2476
▁trübes 2922
▁verh 3278
▁ähnlich 931
▁bayer 1303
rit 1052
▁phas 2847
▁bodenfrost 1260
▁darüber 2243
▁neue 938
▁mittl 2064
▁bucht 1588
▁dage 916
tzen 3440
▁unwetterpotenzial 1867
▁südwest 588
anfang 3220
▁quer 2469
llt 2509
ehrt 2552
▁kar 3188
▁saar 1634
▁zähen 2940
▁folgenden 1732
▁hohen 2398
▁kräft 276
▁reicht 1470
urch 623
ill 2701
▁spürbar 3646
anz 165
▁achtzehn 707
▁bereich 2346
▁östliche 2912
nd 44
▁südostbayern 1926
▁gott 3160
chen 924
▁gewitternähe 1608
▁kühles 2188
▁regentief 3241
▁mischung 1122
▁hunsrück 2670
▁elften 1665
▁niedersch 1332
▁sollten 3525
▁temperaturgef 3322
▁südosthälfte 802
▁dünne 2128
▁angesagt 3569
▁sei 3128
rikan 3598
▁warmluft 1779
▁c 3114
ina 962
▁ger 607
▁dehnt 1970
▁nordwest 587
▁alpenrand 494
zzo 3105
▁schneeschauern 3407
angenen 2396
▁übergehen 2965
zent 2723
▁dunst 2429
▁südlich 813
rum 2078
▁mittelmeerhoch 3420
▁fre 214
▁wund 1752
▁gerin 2588
▁regenfälle 837
▁näch 416
ehnt 1903
▁wurde 3002
▁kam 3189
▁vier 332
▁weite 1767
röm 766
schauer 400
▁auch 96
▁sagen 1882
▁überwiegend 901
▁hell 3372
montag 2708
▁wür 1587
ur 125
eh 91
▁tiefdruck 1042
▁tauwetters 3439
▁regenf 768
▁üb 864
▁wün 821
lagen 1188
▁auflock 2973
▁em 1127
▁ent 1606
gem 3062
rechend 2923
öen 278
ree 1347
▁verläuft 1338
▁trockener 1416
sent 2879
▁verhalten 3279
grenze 1230
▁bay 631
▁stark 401
▁thüringens 3485
ausend 2207
▁tür 2493
▁n 47
ier 156
▁ergie 796
▁vie 267
fangen 3364
▁einhundert 2793
▁wei 294
eilung 3243
▁fünfunddreißig 1911
▁dringend 2626
▁ang 3231
sche 808
▁allzu 2831
▁süddeutschland 933
▁form 2760
▁laue 3321
▁schauerartiger 2528
▁tshir 3617
▁dazwischen 1424
▁regenwetter 2518
▁momen 1677
entsp 3120
▁unterwegs 1135
▁nä 1753
▁andauernden 3487
rm 313
beruh 2508
ehr 300
▁s 41
▁begrü 3369
bend 282
▁rum 3261
vember 1007
▁frostigen 2353
▁gewittrigen 2925
gesch 1869
rtlich 504
▁angefangen 3568
ess 2756
hoch 1341
▁lichtblicke 2126
io 3068
▁höchsten 2382
▁sommerliche 1851
▁bald 2485
▁durch 658
▁windgeschütz 3547
▁kann 399
▁prozent 3432
fen 703
neh 3080
▁aug 1150
▁häuf 688
gegensät 2251
▁fegen 3164
▁verb 2179
näckig 2428
▁lan 724
▁feuchte 1624
▁oben 2799
▁tag 182
▁anderes 3582
▁ebenfalls 2102
▁klaren 1992
▁natürlich 2254
eich 1635
▁lü 2517
▁schneegriesel 2259
▁blä 1189
▁umfangreichen 2975
▁vorbei 1983
▁schönsten 3470
ive 1785
▁lücken 1321
▁meter 1080
ßer 980
äck 1878
dessen 2692
▁mecklenburg 2210
▁frei 340
▁trotzdem 2246
ort 361
▁blitzen 2942
▁ostfriesischen 3518
▁führt 2650
we 832
▁unwettergefahr 1838
▁sel 1264
▁sonnenschein 557
▁in 87
▁aussichten 944
▁schüttet 3566
▁sonnenstrahlen 2679
gehend 784
hangen 1579
▁heftig 1529
rig 2456
▁örtliche 2197
▁wollen 2593
▁heftiger 2373
sstunden 2100
▁klingen 2383
immel 742
▁akt 2146
▁angen 1353
▁breiten 877
▁ital 2151
▁ungemütliches 3478
▁viel 293
▁dire 1750
▁ganz 437
kan 749
▁schneever 1236
vorland 3295
▁sa 2284
ar 131
morgen 2453
▁glättegefahr 1849
▁geh 2486
gang 3064
stens 1590
▁aufgelöst 2982
▁südbayern 3207
gegensätze 2262
▁dreißigsten 1459
▁letztendlich 2417
▁steigende 1940
fel 451
osten 228
esgaden 3162
▁schauern 534
▁jedenfalls 1939
age 227
quer 1372
ü 35
▁wenigstens 2204
▁häufigsten 2099
spiel 1946
▁bevorzugt 3041
▁einzug 3626
▁norwegischen 3474
▁bringen 618
▁rand 2280
▁auffrischender 3504
▁verantw 2539
▁einiges 2790
▁landesteil 1282
▁blick 3303
▁blitze 2849
pause 2713
iges 752
▁klarer 3331
▁wärmegewitter 3442
▁gegensä 3390
europas 1609
esch 822
▁rück 3262
▁norddeutsch 2781
▁manch 1174
▁längsten 1918
▁anges 2811
▁ern 2175
▁hochdruck 700
▁rar 2916
zieht 2106
▁bleiben 1237
▁sauer 1265
▁gar 2155
ieben 2484
▁sternenkla 2955
▁krie 3191
▁minus 315
▁na 1637
cke 2843
▁waldbrand 2927
▁deutlich 709
aut 3217
▁glatteisgefahr 3466
ieh 326
▁bekommen 1453
▁flusspegel 3541
▁sechsten 1603
▁wetterbestimmend 2438
▁ziemlich 1168
▁einer 1351
▁bewölkt 629
▁wechselhafter 1919
▁f 61
▁dreiundzwanzig 1057
wig 1201
▁freundlicheres 3363
▁gefrierenden 1777
▁orkanartigen 2939
älle 644
▁konnten 3532
▁sogar 868
▁angenehmer 2981
▁krit 2298
▁regional 2101
▁stürmisches 2885
▁st 142
esamt 1019
nord 2710
▁oster 2858
▁mindestens 3608
▁tallagen 3003
▁see 760
ö 34
▁ruhiges 1216
▁dreiunddreißig 1987
▁ergieb 799
▁erstmal 1104
reicher 2003
kommt 1783
jahr 2449
▁feb 1070
▁metern 1393
auchen 2801
▁mild 937
enken 3118
▁flusstälern 3540
dlich 2265
▁inform 2500
▁mon 3146
▁verkehrsstör 2980
tsweise 428
▁su 2737
tes 1876
▁schwer 2180
▁lie 411
▁spätsommerwetter 3529
▁verkehrsb 2637
rigen 831
▁ausnahme 2998
▁herrlich 2110
leibt 3392
r 23
▁leich 649
▁rheinland 1927
stär 2478
▁südosten 364
▁frostige 1998
▁bisschen 537
ger 1036
wöhnlich 2046
▁aufklar 1072
▁erhöhte 3522
ühl 3111
▁ostseenähe 2554
▁ausbrei 1519
bul 2442
▁i 48
▁regnerisch 1653
▁frost 471
▁klar 394
ört 2378
▁kältesten 2619
erseits 3289
▁sonntag 362
tte 818
▁gefährlichen 2950
▁dann 195
▁lockern 1844
▁verbreitet 449
fallen 1226
igen 381
urs 2808
▁südöstlich 3469
▁warmen 2597
weden 2914
▁recht 564
▁sofern 3301
assen 1520
▁westfalen 2030
llem 3215
regen 652
▁damit 1116
be 448
▁ergiebig 1244
▁abseits 1218
▁richtiges 2546
▁ober 468
▁erken 3268
stein 1185
▁windgeschwindig 3548
▁gewitterfront 2321
neb 843
ust 1126
▁zusammen 1541
▁erstreckt 1959
▁dichten 1331
▁geht 657
▁massiver 3539
▁höchsttemperatur 2612
▁kräftig 524
▁sieb 595
▁derzeit 1348
▁thürin 1432
wit 174
▁norden 166
▁thema 2390
▁warm 827
▁baden 1473
▁tief 257
▁erdrut 3636
echien 3277
▁blei 288
trächt 3098
▁aussehen 3573
▁freundlichsten 1225
halb 1088
ält 1277
▁rut 3263
▁böigen 3419
▁abschw 2863
▁erdru 3271
▁gefrier 638
▁nah 1472
▁ostfriesland 2649
▁har 2160
nemark 1825
▁seinem 3351
klar 940
▁raum 1724
reicht 735
▁durchziehen 3367
▁sind 344
ap 2685
rie 1874
▁führ 2244
▁gehalten 3161
▁führung 3519
▁kommen 733
reifen 3226
▁sch 71
▁biskaya 2435
▁nun 266
▁mosel 2108
▁strom 3032
rz 1315
▁wolkenband 2171
▁nordseeinseln 3497
▁verwand 1797
▁vierhundert 2558
▁winterliches 3477
▁mil 423
▁dort 370
▁endlich 2119
▁azoren 1883
▁polen 1485
▁glatteisregen 2117
▁wetteraufzeichnungen 3630
▁nordat 2501
▁straßenglätte 2402
▁zustande 3629
tags 3242
stem 2477
iel 1407
▁einzelne 412
äl 200
▁erhalten 2176
tt 1373
ischendem 2951
reck 1757
eutet 1647
wohl 2123
gtland 1097
esteil 1275
▁wäl 3143
▁vierunddreißig 2191
üb 633
▁wird 170
ast 1180
▁überigens 3633
teil 1584
▁legt 2406
▁ich 778
see 244
▁startet 1914
▁wolkenreicher 2818
▁matschig 3609
▁saale 2652
▁zustand 3251
al 141
einzel 514
mezzo 3350
▁begann 3368
▁anfangs 748
küste 1175
▁ham 2770
▁kaltluft 1426
▁ausge 2534
anzieh 1904
▁tiefausläufer 1111
▁verändert 3575
halten 1124
▁luftmassen 1598
▁dauerfrost 1672
▁bayerischem 3424
▁zieh 360
▁wi 105
▁wahr 960
▁chancen 1863
ürin 1405
frankreich 3494
trop 1263
schi 3221
▁sinkenden 3428
▁schwarzwald 1217
▁zwischendrin 2404
▁stoßen 3247
lichen 459
sgebiet 3092
▁förm 3167
▁dicht 1232
▁wolkiger 1361
▁wunderbaren 2635
ht 1006
lassen 2062
▁überqueren 1542
▁herbstst 2932
▁nordrhein 1979
▁traumwetter 3542
▁polar 3300
ahl 2263
▁rheins 1425
▁zw 321
ull 622
▁höch 1017
▁weihnachts 3551
▁er 198
▁ganze 1280
▁oft 1223
▁aachen 2739
▁tiefem 2545
▁gab 1820
▁weil 3142
luft 840
▁keine 1641
▁fall 552
▁schauert 1381
▁steht 2880
▁nachthälfte 1592
ner 330
▁neckar 2564
▁schw 221
▁halbwegs 3621
imal 2037
▁lange 2208
▁vormittag 846
uh 672
▁griechenland 2256
lo 994
▁regnen 710
▁massiv 3538
▁kräftigsten 3348
▁nass 1346
ppt 2625
meert 2360
sland 841
▁auss 2832
▁entstehen 2242
▁rande 2992
▁gute 2873
▁vergangenen 2420
▁frühling 2624
▁wesentlich 3001
▁kleinere 3430
uer 682
▁aus 196
▁aber 194
lä 473
▁flu 3378
▁ledig 3465
▁fünfzig 3312
▁passiert 2238
▁sternenhimmel 3455
▁neunhundert 2572
geräum 3408
▁löst 2313
▁sonnenstunden 2359
▁obwohl 2800
mal 602
▁letzte 1730
▁grenze 1976
▁teil 143
▁westlich 1836
▁len 972
▁schne 181
▁marke 2666
ta 3094
▁orkan 838
▁einstellige 1642
wär 1181
▁inner 3195
eht 273
fte 232
▁hervor 3340
▁mün 2481
ir 485
tla 599
▁können 547
▁ad 2738
▁schau 3173
▁eigentlich 1285
ab 1340
▁tiefaus 1015
lossen 2380
falls 1430
▁gewitterträcht 3514
▁momente 1798
▁dauer 807
▁blü 2544
▁ersten 1276
dig 3053
▁bla 2153
▁orkantief 2599
ale 2520
änd 574
▁lebha 3031
▁schauernähe 2582
▁niederschlagsgebiet 3583
▁am 83
▁küste 736
▁rothaar 3010
▁stürmische 716
▁and 1266
▁kräftigem 1664
▁kälterer 3401
eis 1696
oten 1689
▁zöger 2776
glich 573
rängt 2851
▁wenigen 2084
ütlich 1810
best 817
▁dicken 2736
▁erwar 763
▁südsch 2786
▁luftmassengegensätze 3450
estört 2532
öhnlich 2014
ema 2314
▁andauer 1729
cklenburg 2181
▁norwegen 2629
▁peuap 2848
zo 3101
gebiet 975
▁nächten 2081
▁sonst 202
▁auflösen 2330
gsam 754
▁gefährliche 2401
lag 955
ott 1404
▁harz 3181
▁gefährlich 2114
eden 2693
dehn 2690
▁jahr 1654
▁südwesten 389
▁gewittert 2173
▁bö 1203
▁letz 1354
▁stre 2815
▁vers 2536
▁wo 694
▁an 127
wolken 611
la 94
weh 1231
▁münsterland 3537
▁eh 873
▁schwerpunkt 2648
▁reichen 1442
▁ange 2810
eutsch 210
▁grenzen 2755
zieh 1182
▁große 1938
▁ung 1482
▁minusgrade 1835
▁ostern 2859
▁beruh 1279
▁davon 1349
▁behalten 2154
▁dichtere 798
▁atlantikt 1570
▁vorüber 1235
omm 328
▁draus 3127
▁mittelgebir 663
es 57
▁flocken 1530
niveau 2454
▁zieht 507
ällen 1566
▁ausgeb 3266
▁morgige 3019
▁konn 2418
▁lock 731
ungsweise 2239
▁abkühl 1656
dem 1503
nen 325
▁erzgebirges 3398
▁relat 1408
ara 2686
▁richtung 347
▁führen 2972
▁gipfel 2075
▁verdichten 2024
▁lenken 2218
▁dun 2283
▁erzgebirge 952
▁finnland 3021
▁r 184
▁starker 1045
▁vorschein 2324
eute 153
▁abkl 2556
▁kriegen 3622
▁wald 1037
keit 2451
▁nordwind 1895
▁nordöstlich 1396
▁wechselhaft 529
▁außerd 1589
▁sterne 1227
brei 1467
▁gil 1755
▁dieser 860
▁siebten 1490
▁südwestwind 1214
▁österreich 2913
am 277
▁spä 480
ritten 1727
▁tagsüber 894
▁frühlingshaft 2644
▁gesunken 3446
▁wetterlage 1595
iemlich 1165
▁fla 2487
äch 307
▁frühlingsha 2118
▁osthälfte 706
üren 2466
▁erfahr 3269
ket 3071
so 2716
lück 3077
▁mancherorts 1229
▁tschechien 3509
l 17
▁gesamten 1958
▁sonniger 1449
▁versch 1706
▁weg 1511
▁pfingst 2421
ant 3218
mä 3079
▁gefr 614
▁mittelgebirgstälern 2441
▁hol 1167
ste 415
▁beschäftigen 3650
schub 3224
▁nämlich 2022
▁mildesten 2605
▁starkes 2566
▁äh 915
▁dichte 792
▁landwir 2585
schnee 1899
▁trü 1256
son 804
▁tiefsten 2853
▁süddeutschlands 2920
▁mehr 440
▁gleich 1378
▁nordfriesland 1394
▁wolkenfelder 1041
stunden 1884
▁entsteht 2966
▁gu 427
▁dan 1151
▁türm 3172
▁vierzehnten 1666
deutsch 2691
▁tieferen 3307
▁hoch 334
▁um 777
▁kommender 3376
▁dick 2145
▁entst 1859
▁nat 2148
▁tiefdrucksystem 2682
stung 3137
▁nebelfeldern 1333
▁la 351
▁tun 1891
▁wein 2744
temperatur 338
om 2137
isch 152
▁schneeflo 1457
bwohl 2689
esten 126
ss 2275
▁hitze 1186
▁thüringer 1857
▁siebenundzwanzigsten 1713
▁nordosten 413
bru 2687
▁hochdruckzone 1930
▁traum 2494
▁sturmstärke 2872
kal 1262
▁so 241
▁zuge 2822
▁frühjahr 2596
▁übermorgen 2828
▁fünf 311
▁besten 3153
▁ergiebigen 2095
▁west 445
▁dauert 2653
artiger 2365
▁gelten 1286
▁roten 3479
ri 2040
stärk 1815
▁samstags 3326
kandinavien 1005
▁schüt 2769
▁spielt 3552
▁bislang 2797
glätte 1870
reiches 2890
▁stellen 484
ächt 2465
▁februar 1087
arz 1130
pfel 1691
▁soll 2332
▁leichter 849
▁entsp 988
▁übern 1982
isik 1552
egt 3059
▁wärmebe 3358
lichtet 2510
▁dominieren 3605
▁lediglich 3656
▁gut 734
▁nachlassen 2511
▁achtundzwanzig 1384
lauf 1272
▁wit 2745
eigen 3134
▁ändert 1001
gs 341
▁en 489
▁einstell 3209
▁fiel 2759
▁strengen 3447
▁vorpommern 1736
▁hessen 2772
▁schneeregenschauer 2609
wert 3100
▁verurs 3282
▁nor 1816
▁statt 2674
sicht 957
▁autoscheiben 3661
▁einige 601
▁plus 496
▁ostfrie 2185
▁uh 3117
▁durchaus 1493
▁sp 409
▁daran 1822
g 12
ion 839
▁seite 2473
▁siebenhundert 2354
▁waren 2085
▁pro 1413
▁hamburg 3023
▁posit 3035
▁öfter 2567
achsen 852
▁spür 3337
breitet 435
se 97
▁bill 3154
chenland 2216
sh 2715
▁fließt 1215
▁entwickelt 2601
▁man 779
ieren 1557
ischer 2526
▁lässt 1099
antw 2512
▁zeit 472
▁anhaltend 2109
är 785
▁meine 2053
▁wetterauf 3252
▁zdf 2294
war 615
▁fünfzehnten 1717
▁verschär 2961
immen 1661
▁frostig 1016
nischen 3081
sg 625
▁regenwolken 824
▁sechsundzwanzigsten 1662
▁zentrum 2224
itz 604
▁böen 461
nung 1873
pro 3085
▁südeuropa 3206
▁bilden 1240
▁erfre 2833
▁zusamm 1516
▁vorboten 3264
▁folgen 1463
lin 1545
▁kälte 1427
▁ansonsten 830
▁überfr 2827
▁hat 834
▁land 568
▁mai 1106
▁nähern 3457
ßig 220
▁reich 2050
▁daraus 3185
▁streifen 1680
▁blauen 2986
▁verschn 2839
are 3045
▁winde 1905
▁europa 2143
▁ebenso 3399
▁ausn 2174
▁kiel 3190
▁nasser 2946
▁driften 3604
▁sorgen 1184
▁wolkenschleppe 3627
▁sah 3129
▁kleine 1850
▁einunddreißigsten 2115
komm 954
▁einstellen 2795
▁vorpomm 1704
▁straßen 1500
▁höchst 1245
▁pass 1832
▁unbeständiges 1158
lätte 835
▁kilometer 2433
ringen 3329
te 63
▁hohe 2017
▁wechselhafte 2086
▁auflöst 2836
egen 674
isches 2824
▁dies 659
▁scheinen 2578
▁feuch 1261
▁landesteilen 1433
▁gefriert 2590
▁weiterhin 677
▁auflo 1907
▁tages 854
▁heran 680
▁klasse 2929
▁a 42
olken 136
dien 911
ech 208
▁vorderseite 3510
▁schottland 1502
▁gestreck 3458
▁sieben 474
emm 1646
ngen 2271
▁sturmböen 462
her 771
ischt 2525
▁lassen 1300
▁muss 666
▁verd 1831
▁zögernd 3025
ha 470
▁verschnaufpause 3034
▁zwischend 1599
▁mal 226
▁zu 150
lang 2784
de 513
▁verhältnis 3283
▁gebiet 1710
▁schlus 3175
ital 3183
ember 723
ler 3074
reift 2805
▁fielen 3563
eien 1093
▁main 900
▁he 714
▁ist 168
▁da 79
sichten 889
▁bemerkbar 1062
lus 374
▁warmer 2575
▁nordfrie 1233
pfen 1146
▁wochenbeginn 2888
▁ziehen 572
▁hochwassersituation 3493
decken 3345
flus 692
tälern 2460
windig 3361
▁ne 376
▁nordmeert 2502
▁nordseetiefs 2640
iefs 1561
▁tausend 2767
▁kil 2297
▁märz 1356
gen 55
▁endet 3473
▁gewitt 1028
▁juli 904
▁england 1489
▁fern 2758
me 550
▁wetterberuhigung 2675
form 2446
immend 2356
steigen 3140
▁achthundert 2348
▁äu 1065
▁bringt 662
▁groß 1049
ockert 2638
cht 204
bl 1737
▁sowie 646
▁eisregen 1788
▁rasch 2917
▁turbulenzen 3012
▁riesel 2323
▁pegel 2846
▁braust 3491
▁blicken 1596
▁frühen 2094
▁wir 145
▁herbst 1134
▁abs 1191
▁kaltfront 2369
uchen 2044
▁den 111
▁star 349
▁hochnebelartige 3534
▁eine 619
▁letzten 2016
▁schiebt 3177
ingen 620
▁förmlich 3615
erungen 2282
häl 235
ick 721
öh 1220
▁frü 698
ah 532
▁gehen 1975
unk 1893
▁ausbreiten 1543
▁kühler 497
▁sonne 164
▁niesel 1885
örm 3108
▁sommerlichen 3409
▁lö 1827
▁herrscht 2944
▁kräftigen 973
hregen 1961
land 147
ez 1063
▁seen 3359
ssen 906
▁das 173
▁unwetter 526
▁gefähr 1479
▁wunder 1802
▁gilt 1803
uar 1090
▁doch 1091
▁nebelauflösung 2339
iver 2448
▁frischt 1768
ade 2130
über 162
▁re 93
▁schnell 1559
ial 1806
▁verg 2069
▁gewittrige 1196
deck 1281
ßen 1344
▁abgezogen 2344
▁größ 1539
▁bis 103
ehn 159
▁von 192
▁einher 2791
▁mind 3147
tal 1965
fl 2132
▁durchgezogen 2592
▁oktober 978
▁meer 1257
boten 3048
▁damen 2057
▁gem 3228
▁quellwolken 1313
▁vertreiben 3638
▁ja 567
▁bläst 1209
▁schweren 1986
ennen 2728
▁min 314
fahr 953
▁stro 2816
ptember 1089
▁deutliche 2371
▁inter 2059
▁qu 1163
q 22
▁besonders 717
▁kalten 2004
▁son 90
rhein 430
tw 339
▁ungewöhnlich 2414
▁setzen 3132
▁rothaargebirge 3044
an 114
unterschiede 1716
▁wintersp 3396
onders 712
▁kaum 850
rä 251
▁unwetterart 859
▁chance 3468
▁zäher 1678
schein 464
▁betroffen 2636
reta 3182
spegel 3445
▁nähert 1860
mm 209
▁starken 946
rgebiet 3090
tsp 963
▁kühlsten 1990
to 2717
▁lenkt 1082
▁zweigeteil 3332
▁donnerstag 359
▁einzu 3211
▁gewittern 546
▁als 492
erwolken 1471
ischend 1481
kt 354
▁bew 580
▁hochs 1454
at 268
echsel 439
▁insgesamt 1021
▁fran 1149
▁westfal 1997
▁gange 3611
fähr 1402
icke 1776
wo 1968
▁herbststurm 3581
▁dementsprechend 3643
▁abgesehen 1369
▁mittwoch 383
▁schott 1475
▁wolkenverhangen 1627
▁eingel 3210
roffen 2529
▁mit 118
▁strömt 810
deutschland 538
▁grie 2156
▁nied 3017
▁wärmere 2089
▁norddeutschlands 3371
wärm 2464
▁dagegen 921
▁luftdruck 800
▁rü 1382
▁schneefallgebiet 2098
▁unwetterartig 1259
▁folget 2606
▁freundlich 216
▁großbritann 1431
▁paar 442
▁geschehen 2968
▁siebenunddreißig 3342
▁heißer 1846
▁herrlichen 2614
▁holsteins 3418
▁mittw 382
pomm 1690
▁bewölk 1924
▁neu 533
▁windiges 1715
▁l 128
▁hochnebe 2192
▁j 280
▁weihnach 2551
<s> 0
euap 2785
▁früh 770
▁warnungen 1488
entlich 2470
▁ton 3169
▁deutsch 891
verlauf 1615
▁sozusagen 3642
▁nebel 317
stand 2742
▁et 245
▁allerd 667
▁tiefausläufers 2661
▁grauer 3214
inie 2806
▁nieseln 3480
▁sehen 1443
▁brei 570
▁relativ 1436
▁sachsen 1164
▁über 175
ent 1202
reten 1978
▁regnet 292
▁unserem 3381
▁unwetterartigen 1781
▁freundlicher 627
▁sowohl 2543
w 28
▁schein 506
ria 3495
ström 2743
▁ausgedehnten 3588
▁seit 1881
▁zuschauer 589
gewitter 1523
▁viele 591
teils 2953
▁senken 3133
▁samm 3130
▁siebzehnten 1775
▁gefallen 2514
▁verwandeln 2237
▁stürmisch 502
▁niederlanden 2894
undlich 215
▁schneefallgrenze 1461
▁zurzeit 2904
▁heranfließt 3040
▁kla 1055
▁temperaturgegensätze 2560
oßen 3084
lig 1064
sel 365
▁hochlagen 1601
▁kräftige 531
wechsel 2045
kühl 1572
▁süd 100
▁wunderbar 1955
▁heut 3179
ver 794
▁käl 781
furt 2427
▁nordmeertief 3545
▁september 1105
▁tälern 2290
isiko 1576
▁gol 3158
▁einsch 2303
▁hochrhein 3316
▁gelichtet 2516
▁donau 790
▁längere 695
▁weitgehend 1003
▁z 75
▁mo 1316
▁zurückziehen 2610
▁verliert 2840
amm 1398
▁berlin 1602
▁grö 1377
▁rost 3116
▁münchen 3536
▁westen 193
▁nordwesten 298
▁sinkt 1674
▁zweiteilung 2079
▁auto 2763
▁extrem 2983
▁zeigt 755
haup 3067
▁wälder 3606
▁frühlingshafte 3505
▁getrübt 3610
▁halb 3180
rächt 2334
▁nacht 134
▁produ 3433
fran 2034
▁gefahr 1761
▁gestern 2233
▁woche 708
▁plat 3298
▁ström 782
▁dafür 1152
burg 1159
▁strömung 2909
▁zähe 2161
eb 187
▁fol 1024
▁orkanstärke 3386
▁kom 3192
▁hall 2771
orden 2778
eicht 1068
▁unten 2826
▁sturmtief 1418
▁mittelmeerluft 2934
▁mei 270
▁oberen 2882
esam 907
▁sonnigen 2177
▁dennoch 2924
süber 888
klus 2703
altet 3244
sä 3091
▁polaren 3641
f 11
▁wetterberuh 2524
bald 1804
▁auflockert 3586
ra 89
gegen 1993
▁ruhe 3387
▁temperatursturz 3323
▁fünfundzwanzigsten 1521
▁anfan 673
hessen 2700
▁einiger 2789
▁wenigsten 2203
▁frühl 1571
▁glat 985
▁dessen 3338
▁präsentiert 3589
▁temperatur 355
▁aktuelle 3011
▁herbstwetter 1620
▁orkanartige 1367
▁tiefere 2336
▁get 3156
▁südostwärts 3362
▁phasen 3036
▁t 70
▁genießen 2949
▁tröpfel 2430
▁wiederum 3293
▁oberp 2881
▁hur 3178
▁wolkenfront 3248
▁hochdruckeinfluss 885
ol 122
▁folgt 1784
▁gewinnt 3587
▁meeresluft 1786
df 2264
▁deutsche 2602
▁unser 783
▁sprühregen 2029
tausend 2718
▁stunden 1117
stag 171
▁häufiger 1139
igt 1222
▁kommt 498
▁rei 1812
▁sonnige 1411
nlich 851
over 3083
nungen 956
▁heranzieh 1917
▁wechselhaften 2887
▁östlichen 976
bay 1292
schie 741
▁bergland 566
▁könnte 1663
▁turbul 2668
▁kommende 2871
gehen 2268
▁gegen 853
a 6
himmel 3065
▁lei 490
▁richt 263
▁überschwemmungen 1799
ster 1636
▁beglei 1843
▁richtig 1132
▁abend 283
▁nordseeküste 1383
du 3051
hält 2182
▁teile 1556
tik 2043
▁sicht 1702
ritann 1392
iebt 3151
▁einhundertsieben 3593
▁schwüle 2618
ellen 2694
▁skandinavientief 2385
et 82
xt 1744
ehen 676
▁wen 444
eu 95
▁ostseeküste 1770
ießlich 2219
▁hochdrucklage 2903
▁südschweden 3028
▁jeden 1109
▁allerdings 670
▁meteorologen 3579
ten 158
urger 2809
tsächlich 1655
▁gipfeln 3501
▁gro 1038
pp 1582
▁ihren 2892
▁kältere 1532
▁brandenburg 1368
auso 2206
▁nach 109
▁neiße 1865
üt 2726
▁höhe 2905
wegischen 3435
▁nas 3144
fronten 2878
appt 3047
▁mittelgebirge 1386
▁schneefällen 2199
ach 84
uss 621
▁einigen 844
▁schneegr 2178
▁geb 396
▁tsh 3171
▁einzelnen 1133
▁sorgt 563
ben 148
▁nimmt 1818
▁windiger 2530
iegen 3150
sb 2041
▁heranfl 2901
▁mittlere 3498
▁mittelmeer 1206
▁lag 3236
▁tiefsttemperaturen 2642
▁nachmittagsstunden 2195
▁unterschiedlich 1531
uation 2461
▁nur 255
▁vorerst 2326
▁vielerorts 1075
▁sprü 1995
chtesgaden 3276
▁dien 433
▁bess 1607
s 24
zus 3103
▁atlantik 939
▁länger 701
▁strahlen 2613
ttember 1629
▁vor 188
▁fernsicht 3020
▁schwächer 2249
▁freundliches 883
▁weitergehen 3313
▁finn 2761
ängt 1509
▁sicher 2825
▁erreicht 847
ut 1441
aten 3046
▁atla 675
▁zun 536
▁zur 715
▁vierundzwanzig 1076
▁überg 1763
▁skandinavien 1067
▁u 2049
d 9
ogen 1581
▁kalte 1283
▁un 157
wischen 1374
enburg 1221
▁wetterchara 3253
▁ergiebige 1496
kla 2702
▁schwarz 1172
art 642
film 3595
▁hurrikan 3620
▁vereinzelt 535
▁stü 422
▁verkehrsstörungen 3043
▁nasskal 1942
▁sech 371
▁ruhig 1780
iter 1872
▁dicke 2472
▁herankommt 2900
▁bed 1522
▁gesch 1886
▁kämpft 3567
▁mögen 3355
▁schwül 1412
▁wenig 637
▁davor 2296
uen 1967
▁entlang 1499
richt 2457
▁stei 935
▁verschwindet 2125
▁hö 719
▁heft 725
▁ei 665
lar 350
▁sonn 201
▁steigenden 2931
eutung 3265
▁lich 1811
▁jul 895
läufer 902
▁immer 512
etiefs 2499
▁diese 660
▁italien 2255
▁regenschauern 2093
▁durchs 2366
enkt 2729
▁ruhigen 3388
pel 1294
erreich 2732
▁zurückzieht 3416
nn 169
▁überschwemm 1686
▁berge 3319
acht 2299
rei 121
▁unwetterartige 1428
▁brin 436
▁kleines 1679
▁dich 432
twetter 3317
▁pola 3299
▁strahlenden 3556
▁abge 2342
reiche 2088
▁liegen 987
▁hauptsächlich 1684
ütz 2727
▁h 72
▁schlei 1474
▁fuld 3166
▁entsprechend 2386
▁direkt 1801
▁bergen 679
icht 185
teilung 2018
▁ir 1972
▁verschwind 2021
iveau 2236
▁frostfrei 1487
▁unge 1981
ts 287
or 52
▁schauer 160
icken 1439
lan 3204
eg 1314
▁beg 678
▁tre 3170
▁ansteigen 3235
drei 872
▁januar 1098
▁holstein 1197
▁regentrop 1274
vor 237
▁graupel 1307
▁steigendes 3411
▁gewarnt 3030
▁frank 1247
▁schluss 3618
▁azorenhochs 3531
rüb 3087
▁ecke 3384
▁größere 2230
▁küstennähe 896
▁teils 479
▁sternenklare 3584
ing 1448
lung 3075
▁gering 2589
re 74
scheinlich 965
▁produz 3652
▁winter 908
▁leichtes 2918
▁selten 1465
▁fort 2157
▁jetzt 661
▁gewitterschauern 2617
▁glatt 1004
ffen 2033
▁gewitterträchtigen 3659
▁nordeuropa 1823
▁mäßiger 501
▁wes 2479
ander 1241
▁tren 2765
▁alpentälern 2547
alb 1056
▁graupelschauer 1789
ers 217
ächst 648
▁entwick 878
▁besser 2019
▁knack 3482
▁neuer 1239
▁ein 102
▁werten 2862
▁nochmal 942
agel 1446
ue 2721
▁bedeutet 1681
▁allen 643
▁kurzzeitig 2963
fal 1401
▁herr 1330
▁ging 2754
c 8
▁ge 124
punkt 1161
▁gerade 2200
▁wetterregie 2317
schw 1273
▁nordhälfte 762
▁windstärke 2319
▁inklus 2779
gie 757
▁mitte 281
tig 2278
▁hoh 1390
▁rest 2782
▁landwirtschaft 3008
▁oberhalb 1420
▁mainz 3395
per 331
▁gefrieren 803
▁schneere 1096
▁gerechnet 686
▁ostbayern 2860
▁steigt 1936
pitze 3086
▁allmäh 1297
▁nachlässt 3216
k 16
▁gr 3155
▁aktuell 2663
▁einhund 2792
▁nordstau 2503
▁ähnliches 1389
▁kau 842
ichten 806
ximal 2047
▁erfreu 3033
▁zugs 3250
m 18
sp 1547
▁sam 367
▁starke 1044
na 1628
▁stu 3245
▁able 2864
europ 558
rö 645
▁kühle 909
▁okt 971
▁schickt 3619
▁äußersten 1121
▁zwanzigsten 2002
▁bevor 1031
▁diesem 1193
▁nordmeertiefs 3546
mäh 1293
▁meteorol 2907
▁lösen 1957
▁leb 2812
▁eher 1195
liche 1212
▁englands 3438
ag 66
▁neunzehnten 1723
äll 320
▁nächste 1205
srück 2459
▁gekommen 3229
▁gipfellagen 2422
hin 544
▁hinweg 1722
angen 1352
tschaft 2719
▁herbstlich 2387
näck 2272
▁vorsicht 997
erd 616
ehmen 1671
zone 1397
▁großbritannien 1437
uft 254
pen 262
▁zusammenkommen 3443
frie 1119
zu 1745
▁geschneit 2969
gef 2350
▁witter 3016
▁flaut 2667
▁gewin 2987
▁hochnebel 986
▁voran 2533
▁runtergehen 3460
klich 1741
ck 225
j 15
▁feuchtere 2240
des 3052
unter 617
▁aufgelockert 2641
ün 732
▁sodass 1765
ende 469
fern 2445
▁biskay 2305
dar 3054
fluss 738
ost 457
▁ausbreitet 1906
▁reifglätte 2662
▁neues 1423
immt 775
▁nordital 3200
annt 3327
schen 530
▁fünfhundert 1989
▁wochenhälfte 3353
▁schweden 2842
▁seinen 2001
▁teilweise 231
agt 1697
▁südwestlichen 2362
▁unwetterrisiko 2581
hein 336
▁nordwestlichen 2895
ert 366
▁dabei 353
▁im 60
▁winterwetter 1429
wehungen 1249
schnit 1308
▁beschäft 3405
▁schwacher 523
ief 234
▁leicht 910
▁ho 970
▁intensiver 3535
ä 33
▁chanc 1734
▁durchweg 2591
▁nör 1148
ndern 1971
▁rauf 2010
gebiete 1387
ationen 3517
▁schneeregen 1112
▁wetterdienstes 977
orol 2751
▁abziehen 2343
gaden 3063
▁dün 2051
▁ver 212
▁besch 989
gebie 774
st 45
▁pfalz 1908
▁tiefdruckeinfluss 2104
▁warmes 2598
rauen 3201
▁wolkendeck 1645
▁trüb 991
aben 493
▁juni 1278
▁aufzieht 3274
schn 1234
zeit 819
zial 1809
▁dezember 1086
läuf 857
ord 86
ringt 2870
▁platz 3639
▁per 3296
wie 476
agen 475
bur 1123
▁lokalen 2952
▁front 3309
▁schön 1772
▁stabile 2631
▁württember 1683
▁wobei 2006
il 274
stälern 3139
▁klarem 1177
▁saarland 1795
▁woch 425
▁eintausend 3213
▁dauerregen 1081
▁mitternach 2310
▁mittel 465
▁ex 3383
▁milde 928
▁außer 2762
llen 466
▁schwüler 3431
ingst 2400
kehr 1807
▁strand 3246
elauflösung 2266
▁immerhin 1254
▁moment 3462
lbar 3076
▁wunderbares 2977
▁durchsetzt 2995
bar 879
▁dreihundert 2340
▁erfurt 3270
▁osthessen 3310
▁ö 407
▁zent 1269
chara 3122
▁ankommen 3232
ßerd 1585
▁freundliche 1118
▁sommerlich 2105
▁unwetterwar 1155
▁betrifft 3657
▁wetters 2823
▁breisg 809
böen 408
brand 2688
▁richtigen 2855
orm 2055
ück 982
▁bestand 3365
▁kühlerer 2087
erung 1747
geb 406
kü 913
▁o 112
alt 2521
etrüb 3194
▁ohnehin 3658
▁august 1179
▁seewind 2595
as 211
▁kommenden 1157
▁dürfte 3014
▁wandert 2424
öhte 3422
▁anfangen 2205
bringt 3049
▁beeinflus 1913
▁th 1268
lat 789
▁köln 2627
▁weitere 1415
▁noch 137
sischen 1875
▁kein 1476
olen 1478
▁gefährlicher 3436
▁wahrscheinlicher 3402
▁oberpfalz 3578
▁gest 1643
▁zahlreicher 2432
▁weihnachten 3550
wei 129
iv 1050
▁einzel 373
▁größtenteils 2976
kandinav 993
ats 2074
ürm 3112
▁küsten 379
▁streift 2621
▁tagesverlauf 1616
önn 511
▁nieselt 1754
▁zweistellige 1916
▁ihr 2891
▁gewitter 179
▁lausitz 947
▁extreme 2643
eutschland 229
▁möglich 582
▁beginn 1495
vert 3099
▁geringes 3554
landigem 2523
▁innerhalb 3623
▁or 820
▁umfang 1933
▁al 203
▁bewölkung 2027
hund 912
▁einundzwanzig 934
heits 3066
beg 2351
▁dienstag 434
ild 2548
▁freundlichste 3288
▁ma 647
mäßig 3596
▁sicherheit 3571
▁kräftiger 765
etzen 2580
▁dre 1748
▁allem 316
▁strei 1480
atur 335
▁temperaturniveau 2561
▁trocken 329
älzer 3275
▁ih 569
▁nebels 2865
▁wolkenschle 3249
▁zahl 2293
itze 1079
sturz 3015
▁halt 2773
▁herren 2083
▁stren 1555
▁ausläufer 1560
ertag 3121
och 92
▁himmel 753
▁lo 608
▁ostermontag 3576
▁hochnebelar 2426
▁abklingen 2677
▁hochsommer 2229
tige 3097
▁himmelsb 2908
▁siebenten 2884
▁überschwemmungs 3463
▁anhaltenden 2394
▁höhen 2594
▁ch 1630
▁kühlen 2187
▁menge 2985
▁sondern 2333
▁her 431
geräumt 3651
▁ausgesch 3267
▁verantwortlich 2676
▁temperaturunterschiede 2347
▁intens 2434
▁es 67
tlich 384
▁gefrierendem 2090
usitz 943
▁mittwochs 3330
▁überschw 1648
▁abkühlung 1735
▁beschert 1060
▁größer 2948
▁trüber 2906
▁höhenlagen 2680
▁böig 1676
▁sylt 1956
▁neunzehn 876
▁ungetrüb 3437
▁seine 2583
▁macht 1137
▁reg 213
rop 510
▁schauerwetter 3256
▁herbstliche 3414
▁hart 2291
gezogen 1709
▁verwöhnt 3461
▁flachland 1733
▁trö 2287
▁wer 308
ien 309
ckermark 2235
den 219
▁lüneburger 3004
▁rieseln 2439
▁schwarzen 2933
lleicht 1071
chtig 2837
samm 1506
fter 1578
ren 713
sy 2458
gnet 2697
▁eins 2788
▁gi 290
▁mitunter 744
▁ster 995
▁südöstlichen 1954
▁westlichen 1301
esluft 1756
▁tauchen 1464
bst 1022
▁wärme 1526
gel 1739
▁verschärft 3585
▁tage 1355
▁bestimmen 1667
eiß 728
kord 3072
nach 1688
fur 2267
▁stellenweise 487
▁zunehm 1047
▁auflockerungen 2245
▁kühl 319
▁denn 1027
i 14
lei 862
sommer 3093
▁ergiebiger 1721
▁hallo 3024
▁erreichen 1013
▁bes 528
▁kleinen 2615
▁übernimmt 2415
▁harmlo 2258
▁ra 890
▁heiß 772
▁fr 279
temperaturen 1329
▁anders 2474
▁stärk 1593
▁herbsttag 3413
▁sieht 1325
gebieten 3380
▁aufklaren 1852
nee 1897
undzwanzigsten 549
▁tut 2288
▁verlagern 1673
▁eifel 1033
▁zeitweise 691
sch 117
▁je 927
▁tiefland 2854
▁beziehungsweise 2260
▁böiger 1622
▁oberschwaben 2678
▁überwiegen 776
▁ste 467
achen 2300
▁radar 3394
▁wolk 639
▁torna 2768
▁nennen 2747
▁trockenste 2868
▁ostsee 481
▁wetterdien 925
▁sommertag 2608
▁hinter 2009
▁wand 2147
▁beeinflusst 2247
▁alpenraum 2337
▁nehmen 2150
ül 1375
▁regenschauer 745
▁landes 1840
▁text 2665
▁frühlingswetter 3472
<pad> 3
gebir 518
▁rauskommt 3429
▁zunächst 650
licher 1477
▁zwölften 1841
▁folgetagen 2681
▁all 191
▁einundzwanzigsten 1698
äum 3107
▁zwischen 453
▁zwölf 669
▁bewöl 598
▁wenige 1712
▁geschlossen 3481
ituation 2497
▁raus 1388
▁seltener 2113
▁beim 2076
▁ihn 3356
▁heranziehen 3483
▁drin 1633
älern 1484
erts 2731
ärk 1258
ussland 1612
tem 291
▁wind 178
stra 2475
▁manchen 2211
▁entladen 2226
▁nordwesteuropa 2586
▁schnee 207
▁intermezzo 3496
▁intensiv 3000
sar 1963
▁stürmischem 2576
▁mat 3148
▁sauerland 1290
▁sonntags 2869
unddrei 880
▁bleibt 306
▁atlantiktiefs 1948
▁sichtweiten 2959
▁wärmebelastung 3647
für 1144
▁fäll 419
▁elf 743
▁bedeckt 1912
▁g 56
▁gestaltet 3459
▁mittelgebirgen 815
▁verlä 1324
meter 1213
▁zweiunddreißig 2349
nde 3135
▁eingef 3212
▁begin 761
▁dünn 3559
▁gewit 176
▁oberfran 2352
▁schneeverwehungen 1250
▁überqu 1558
▁tschüss 2645
lastung 3205
asser 1778
▁mittelwert 3341
le 1742
▁fällt 421
▁aufgel 2068
▁heide 2774
▁könnten 2886
▁tiefen 2852
stell 1253
hundert 951
▁oberschw 2574
wegen 2141
▁kal 571
▁kräftigere 3349
▁quadratmeter 2261
rischem 2714
▁maximal 2091
anuar 1095
wanz 205
▁meiste 2549
ische 2067
aufpause 2993
▁frankreich 1309
▁neuschnee 2000
t 25
▁wolkenreiche 2819
und 51
▁regengebiete 2519
reich 565
lösung 1791
orts 780
reitet 386
▁einmal 1699
▁gestreift 2956
▁samstag 368
etz 522
▁erste 1224
▁einem 961
▁geringer 3553
▁hun 2495
▁hochdruckwetter 2007
massen 1580
▁baltikum 2129
▁kreta 3193
and 583
rik 3088
▁hä 671
pr 1114
fit 1805
wind 612
▁südwesteuropa 2587
emütlich 1829
has 2698
▁schon 404
▁strahlender 3555
▁südwind 2063
kei 2134
gefahr 1192
au 113
tbl 1966
▁verstärken 3006
▁vergleich 3499
▁gewitterschauer 1410
▁vormittags 1935
▁weiteren 2186
▁zentimeter 1538
▁näh 1638
▁island 1819
▁deut 704
▁reif 2409
▁trockenheit 2190
zogen 1693
▁gep 2312
▁später 503
▁starkregen 1419
▁südostwind 2364
ran 892
▁strecken 3570
▁b 53
hlen 1909
▁fünfundzwanzig 865
▁herausgegeben 3577
assersituation 3385
ann 369
aden 1370
▁allmählich 1312
▁feu 1008
▁südens 3258
▁uns 253
▁der 77
zwanzig 247
▁für 177
all 327
▁daher 3184
zoren 1877
fach 2032
▁höher 1194
▁mäßig 286
▁östlich 1934
sen 458
▁trockene 1600
▁frische 1417
▁kälteste 3434
▁mö 561
falz 1790
ngt 1251
▁westwind 1486
▁dez 1066
ang 2802
ter 64
▁wechselhaftes 920
▁zweigeteiltes 3645
britann 1400
▁ausnah 2425
▁sechsundzwanzig 1360
westen 197
▁erneut 2647
▁abends 1766
▁erwartet 1000
▁hält 1296
▁dri 3125
▁sonnenhoch 2358
▁hohem 2111
▁brand 1317
▁fün 304
▁dauernebel 1847
▁ihnen 610
▁geben 893
fre 2443
ich 59
▁fast 1211
▁überhaup 3260
auf 2306
druck 454
▁ostwind 2553
▁bayern 737
▁droht 3560
▁möchten 2889
▁november 1020
urm 391
▁morgenstunden 3225
▁sie 224
mer 488
▁vierzig 2559
öger 2725
äu 750
drängt 3057
▁nasse 3607
▁vord 2162
onten 2757
tter 3095
▁anfang 1929
fall 922
▁taut 3406
▁wa 3141
ziehen 1536
▁hin 875
▁normalen 3009
ße 2724
▁verlag 1014
▁entsprech 1083
▁ostwärts 1451
▁allenfalls 2898
▁start 2193
▁regenmen 1901
end 260
hnach 2447
schei 2803
▁westeuropa 1660
▁grau 1169
▁schneef 576
▁locker 1720
▁runter 1649
stellige 1337
p 21
▁schneefälle 1078
aar 414
üh 3110
temper 337
▁zentralen 3423
▁unsere 3306
▁leichten 1492
▁unwettern 1999
▁dem 358
▁wärmsten 1925
▁osteuropa 1565
ges 1200
ächlich 1414
▁ber 348
▁gewar 2807
<unk> 2
▁heranzieht 2122
▁hoher 1364
▁deutschland 305
▁sich 154
▁aufgeh 3273
▁hatten 2008
▁stat 2522
▁tatsächlich 2257
cker 1652
▁nordrand 3197
band 1399
▁neunundzwanzig 1568
gst 2035
▁rostock 3601
ehalten 1980
▁sonnen 516
get 1868
▁alle 1483
▁ausgeschlossen 3635
▁begleitet 2025
▁wetteraussichten 2437
seln 1915
▁vollem 3352
ja 1469
▁überquer 1518
▁gelangt 2169
gäu 1145
▁schwachen 2857
▁abges 1358
▁herrliche 2943
regie 2292
fan 630
▁selbst 2389
▁tiefdruckzone 1937
▁alpenvorland 3308
▁war 477
▁nordosthälfte 1140
▁niedersachsen 2361
z 31
▁spiel 2568
enden 3119
▁linie 2813
ruck 450
▁spanien 2124
ppe 3448
ungs 1834
▁temperaturen 387
▁äußer 1085
ern 438
ken 110
▁erle 2328
▁p 240
est 180
inn 2065
▁wetteraus 2315
▁bo 881
ommer 1657
ehm 788
findet 3061
▁auffr 1705
▁landesteile 2391
▁übernehmen 2979
orna 2752
▁nordwestwind 1923
▁geregnet 3613
▁meist 284
zer 3102
▁seiner 2584
in 123
▁ 36
▁zähem 3426
mit 356
▁bet 1973
▁deutschen 950
erkbar 1053
▁windgeschützten 3660
etzt 579
ch 39
▁trüben 2937
scha 2309
▁sinken 1365
▁vertrei 3284
lich 108
▁atlantischer 1943
▁südlichen 1350
▁tats 2159
▁nähe 2149
▁rieselt 1764
▁tiefstwerte 3500
▁denen 1898
▁triebe 3374
▁brä 2753
▁häufig 884
ternach 2286
▁entw 858
▁ander 2938
orgt 555
▁sonnenstra 2579
▁sein 551
▁unwetterwarnungen 1289
mpft 3558
▁regengebiet 1322
weg 1460
▁überquert 1577
▁be 322
gentlich 1267
▁mitternacht 2436
▁sternen 1619
▁hinein 3393
▁zumind 1131
▁ruhrgebiet 3389
nähe 727
▁entwickeln 930
▁übrigen 870
▁ausfallen 1298
wer 1692
▁umfangreiches 3484
▁ehesten 1363
tet 324
▁schien 3174
▁schwach 295
▁regenfällen 1932
rü 1546
▁daneben 2671
▁stürmt 3339
wetter 402
▁einhunderts 3029
▁aktu 2423
▁wur 2480
aup 1515
on 58
▁auffrischen 2116
▁dä 1694
▁fallen 664
▁heute 155
▁dänischen 3464
▁jedoch 2217
▁sehr 525
ör 981
nebe 2165
▁genug 2616
▁gestreckte 3654
werte 2020
h 13
▁eis 1284
etter 133
ieb 3149
▁entfern 3451
▁atlantikluft 2011
▁des 418
▁diesen 1514
▁kurzer 2962
▁einfach 2304
▁vierzehn 577
äh 333
nders 693
lücken 1403
ralen 3202
annung 3328
rost 420
▁gew 2168
frost 1035
ließlich 2452
um 581
▁au 62
▁luftmassengrenze 2232
▁einfluss 1759
nis 2709
▁alles 1830
▁anhaltende 2941
lle 2798
bt 172
einflus 1890
▁liter 1900
stur 2741
▁ostsachsen 2861
▁thüringen 1944
ehende 3203
▁orkanart 1288
▁gegeben 2515
▁frischer 578
▁irland 2248
▁tiefausläuf 2381
em 146
ig 69
▁le 1701
mark 1504
geben 2194
▁klein 1391
▁langsam 756
hälfte 238
▁mor 2748
anc 1700
▁längerem 1719
▁kurze 1537
▁abgesch 3311
ere 372
räglich 3305
▁dementsp 3324
endem 2073
▁schneien 1102
▁gibt 296
▁kühlerem 3344
▁mittag 1826
weise 149
▁ost 303
▁währenddessen 2911
ay 542
zehn 186
▁mä 269
ie 50
ung 249
ürlich 2212
▁nächsten 491
▁präsent 3007
▁nordöst 1319
▁schö 520
▁unwetterpoten 1839
▁aufklart 1246
▁knapp 2121
▁läng 460
rücken 3089
ober 969
▁tal 2492
▁bevorzu 2926
▁druck 3124
▁mittelgebirgsraum 2660
un 80
▁flüssen 2209
▁null 626
▁dreht 1800
stigt 3138
▁d 40
▁dadurch 3186
▁boden 903
eder 3058
ige 230
▁stra 1323
▁guten 556
▁waldbrandgefahr 3042
ause 2308
▁dom 3126
ür 786
ze 833
▁erh 2327
▁versorgt 3549
▁no 996
▁finden 3165
▁nordrä 3196
▁höheren 1219
indet 2541
iebe 3152
▁europas 1631
▁bil 575
▁tiefe 2335
ber 101
▁los 1611
▁kälter 949
▁unterschied 848
vorhers 258
▁abschwächen 3038
▁größten 1945
▁gan 3157
▁end 1813
▁tauwetter 1498
▁geringen 3360
▁vermischt 3523
ieder 190
▁lokal 1569
▁nordwesthälfte 801
▁teilen 1170
fr 455
▁quell 1306
▁wol 634
▁durchwachsenes 2623
▁gewittr 1084
der 120
liert 2706
▁baltik 2112
▁dahin 1513
▁rund 2322
ücken 959
▁sechs 508
▁mittelgebirgst 2368
▁k 81
▁aprilwetter 3415
▁wechselhaftem 3502
▁und 54
▁auftreten 2412
▁verlauf 2537
zel 272
▁misch 1115
gegeben 3334
▁reichlich 2127
▁zwanzig 553
▁montag 417
▁südskandinavien 2302
ind 239
▁gewittriger 3410
▁gewitterböen 1703
eit 223
▁genauso 2227
▁wetterwechsel 2172
gebirge 898
▁begrüße 3648
▁span 1994
▁jederzeit 2377
woch 2140
▁genau 2399
▁sonnentag 3346
inden 2844
raum 1553
▁nasskalt 2413
▁sachsens 2611
▁fünften 1707
▁peuapeu 3037
▁gel 739
▁fü 139
mlich 1023
▁dane 2498
▁sechzehn 690
▁hochwasser 2250
wochenende 2253
hältnis 2988
iesel 984
▁eben 929
▁osten 218
zig 1549
▁ab 310
▁fl 740
▁darunter 2971
▁rauskommen 2397
ören 3109
▁informationen 3544
▁sechsunddreißig 2357
▁zwar 1452
▁zeigen 1059
▁südost 613
▁ändern 2214
unddreißig 887
el 115
▁einunddreißig 1554
▁dreizehnten 1491
▁unbeständ 871
▁freundlichen 2070
▁frischen 2184
witter 1517
▁bestehen 1527
oren 1512
▁weht 352
▁bayerischen 1395
▁wettercharakter 3631
▁anhalten 1320
▁kräftiges 2198
gra 1210
▁dazu 597
▁herein 2874
ire 1740
▁adria 3561
▁zehn 521
▁unbest 867
rin 377
▁balkantief 3471
▁manchmal 3417
▁winterlicher 2603
▁nordse 2061
▁örtlich 505
▁dreiundzwanzigsten 1564
▁wie 697
▁ro 1879
▁mains 1782
he 2269
▁wenn 1154
ff 2695
▁nordosteuropa 3379
▁wetterdienst 932
▁zugspitze 3628
▁gepäck 2657
▁bekommt 2345
ft 132
▁hochw 1991
▁elbe 1136
en 37
▁föhn 1639
ahr 605
▁gebiete 3335
▁nordost 758
▁weiteres 2557
einseln 3168
löst 2705
zen 1969
▁niederrhein 836
▁aufwärts 2835
▁örtlichen 2577
einander 1295
ierende 3254
▁ohne 2646
▁dahinter 1575
▁stellt 2573
▁witterung 3590
▁norditalien 3625
ock 2039
rück 2274
▁acht 393
▁komm 385
▁nördlich 1535
▁türkei 2669
erisch 1632
▁abgedrängt 3526
▁spätsommerlich 3528
sterland 3456
seenähe 2507
▁atlantisch 1362
▁überschwemmungsgefahr 3655
eswig 1204
▁ungemütlich 1858
▁tiefdruckgebiete 1726
▁bedeutung 3441
front 1605
ßt 2048
▁herum 2571
▁pur 3297
ikt 1544
bare 3050
▁pf 2071
▁gra 104
▁bessert 3452
bereich 2166
trei 3096
▁normal 2628
ften 1011
sät 2138
▁niederungen 1610
▁angst 3233
▁sechshundert 1920
ungen 447
üssen 1586
▁danach 1534
▁einander 2794
ratmeter 2163
▁ext 2096
zeich 3104
▁harmlose 2651
rem 1039
▁haup 1591
▁wechsel 446
▁zäh 1318
▁achtzehnten 1931
▁nordmeer 1824
ne 98
▁nordischer 3198
▁vermehrt 2994
kand 979
▁neunundzwanzigsten 1456
ifft 3070
unken 3187
iert 1380
▁milden 1996
▁zei 600
▁flus 2488
▁also 702
bei 345
▁vo 554
▁kritisch 2654
werten 2958
▁atlantiktief 2231
lö 1440
▁auft 1889
▁ungefähr 3492
▁höchstens 2012
▁quad 2222
öst 958
renze 1120
▁kon 2058
▁überigen 3259
▁änderung 2215
enende 2144
▁andauert 3467
▁tr 729
▁beruhigt 1310
ro 161
schied 828
▁entsprechende 1178
▁etw 246
▁bildet 687
reichen 797
ulden 3382
▁morgens 2804
▁frisch 343
ckt 3294
gebirges 3347
▁zwei 395
▁überwie 769
▁drängen 3603
▁fulda 3614
zt 2722
gr 1960
e 10
▁daz 540
▁höchsttemperaturen 1574
ad 2031
▁blitz 1326
estens 3230
▁tja 2289
wanzig 206
▁reste 2783
▁sonnig 590
▁berg 3318
▁ausgedehn 3005
▁tsch 2158
ähe 596
gramm 3421
tief 1125
▁besserung 2954
dass 1738
▁niederschlag 2945
▁gelenkt 3377
▁stürm 426
üsse 3113
ät 1746
▁nördlichen 1621
▁änd 863
mittag 388
▁wetter 151
u 26
▁men 2152
schiede 1669
von 1342
orgen 116
▁verbleibt 3516
▁entspannen 3403
▁dreißig 791
▁einschließlich 2655
lt 1687
lässt 2883
▁bem 1054
▁halten 1094
▁funk 1977
▁te 2468
▁tiefs 764
▁niederschläge 1434
▁dro 2734
▁nörd 1160
tl 2042
▁kur 1187
▁dänemark 1862
▁wünsche 829
haar 2699
▁irgend 3489
wachsen 1508
▁vielleicht 1073
unde 2749
unden 874
▁vierten 1567
▁tröpfelt 2664
eut 189
läge 1421
▁dreizehn 641
▁krä 275
egel 2392
lösen 2228
reme 2496
▁entweder 3391
ass 814
geh 767
schaft 2656
▁feucht 1573
▁grad 107
▁regentropfen 1291
▁schleswig 1208
gland 527
teorol 2764
▁rügen 1435
▁wieder 222
▁zuvor 2821
</s> 1
uni 1270
beginn 2659
▁bereits 1299
▁ruh 845
▁isar 2052
▁mond 3425
▁bestimmt 899
▁w 46
iger 380
▁zwischenhoch 2877
heit 1871
▁konnte 2996
kl 2133
▁uhr 3602
lieben 3078
▁neuen 1173
▁dichteren 2896
▁niedrig 3591
rän 3304
▁rot 2632
poten 1808
▁windgesch 2531
▁harmlosen 3520
tag 138
▁regeng 3238
▁nächster 2082
ebe 2830
▁nicht 483
ruar 1077
▁tau 1025
▁hochnebelartig 2999
neit 2711
▁rechnen 1896
tmeter 2139
▁erheb 3521
dru 3055
▁m 49
felder 543
▁wechseln 1455
uf 357
ru 378
▁andauernder 3488
▁radarfilm 3649
▁sommer 1048
▁stärker 1794
▁spree 1359
▁lokale 2403
▁nie 2746
▁nordsee 363
b 7
auer 135
▁entspannung 3404
▁lang 2077
geteil 2967
▁ungestört 2622
alten 722
eren 1183
ub 2720
bayern 1311
▁inklusive 3026
▁liebe 592
▁liegt 856
sten 65
▁neb 289
▁odernähe 2850
▁trockenes 1658
chten 1510
▁leider 1771
os 2038
▁neiß 1817
▁nordöstlichen 3427
▁unwetterwarnung 2013
▁vorübergehend 1336
▁mach 586
▁oh 2167
▁stabil 1866
▁etwa 1030
▁abschnit 1328
▁nord 88
wald 1162
▁freitag 342
mitte 2562
▁funkeln 2028
▁bisher 2796
▁abschnitte 1339
▁mittleren 2419
ug 2279
▁breit 2893
▁neun 456
undzwanzig 248
▁atlant 681
▁nächte 2080
▁stürmischen 897
▁verm 2331
ieß 983
▁wegen 1147
▁entla 1302
▁keinen 2620
ola 2455
▁westhälfte 948
▁eines 1010
▁mark 2483
ckar 2540
igung 2490
bruch 3013
▁nordostwind 1845
undert 2750
▁lebt 2405
ge 398
derzeit 2311
▁angenehmen 2947
▁dieses 1138
▁etwas 271
▁hier 285
enähe 2471
öl 392
▁schwache 2856
▁sonntagnach 3325
▁weiten 1563
▁wolken 144
▁don 297
▁gebietsweise 429
▁gen 1406
▁württemberg 1861
ehinderungen 2673
lage 1371
tz 1507
▁erwärm 2834
▁schwächt 2841
▁wolkenver 1594
inav 992
▁übergeht 2407
▁zunehmend 1061
zeichnungen 3600
öhnt 2935
▁neben 825
▁schwere 945
▁neunten 1837
▁hochnebelfeldern 3454
v 27
▁tiefer 1450
▁achtundzwanzigsten 1769
klungen 3507
ings 632
▁gefrierender 1107
stärke 1864
▁betri 3490
▁müssen 2054
▁me 751
▁unterschiedlichen 1018
▁glätte 917
▁v 76
▁überfrierende 3572
aus 683
▁klart 998
▁ausnahmen 3533
eide 2740
▁fängt 1551
▁lauf 653
sst 914
▁zehnten 1773
▁angenehme 2416
▁emsland 1335
▁erwarten 1243
cken 252
▁auffrischendem 2960
▁kühlere 1043
▁morgen 119
▁bal 1444
ischen 323
▁tiefdrucksy 2607
▁pos 2845
▁kurz 1728
▁niveau 3145
▁autoschei 3564
olar 3082
schig 3222
▁machen 718
ng 424
gt 243
▁breitet 1069
▁profitiert 2241
▁lockeren 2374
▁profit 1856
▁unbeständiger 2375
▁himmelsbild 3580
nden 3136
▁höchstwerte 2388
is 73
▁beginnt 886
erorts 787
▁heftige 990
▁regens 3239
ähr 711
▁nordrändern 3624
▁dank 1533
▁gelegentlich 967
▁freuen 3286
▁hartnäckig 2431
▁schwäch 1985
▁bra 1974
▁kaltes 3370
▁durchwachsen 1528
▁kä 2777
▁vielen 1562
▁schneit 548
rand 443
▁nebelfelder 730
len 2704
▁wechselha 495
ll 106
eln 773
▁vereinzel 517
▁wirklich 1762
▁april 1142
▁sollte 3524
▁setzt 1345
▁zum 233
▁außerdem 1626
inieren 3227
▁zudem 2066
▁gewittrig 2930
▁trifft 3373
durch 3056
fil 3060
▁insg 1009
ell 1199
▁vordringen 3511
▁weit 941
▁weiterziehen 2866
imeter 1468
▁heftigen 1668
▁süden 163
grade 1248
men 1113
▁drei 299
eine 1166
▁dingen 656
▁verteil 3280
ießen 2379
▁oberrhein 539
▁sy 1814
▁zwöl 636
ul 793
▁sturm 397
pa 2712
echnet 684
▁flach 1614
▁vogtland 1103
▁berchtesgaden 3320
▁wochenende 594
ischem 2318
▁andauernd 1953
▁währ 812
o 20
seite 2277
ocken 1505
▁atlantikhoch 3400
▁bezieh 2189
langt 2164
▁hinaus 2376
mp 2707
essen 1821
west 390
▁best 635
it 78
▁dau 2295
rübt 3444
ünstigt 3375
▁nordnord 3199
▁schick 3176
▁bayrischem 2897
qu 923
▁verw 1651
▁schneefall 866
▁auflösung 2329
▁was 1376
▁beiden 2341
ß 32
▁wolkendecke 1685
▁trockenen 2867
▁allgäu 1171
▁nieder 585
▁steigen 1110
strömung 3562
▁lä 405
▁glatteis 1725
▁gleichzeitig 1625
▁neblig 1074
scht 2513
eite 1751
landen 2820
sstör 2919
▁internet 2639
▁südöst 1758
▁donner 346
▁niederbayern 2005
ieselt 1334
ckerungen 2234
▁se 606
▁freundlichem 3287
▁frankfurt 2936
▁rhein 640
▁alpennähe 1327
▁vierundzwanzigsten 1659
▁strenger 1682
▁ganzen 1100
ont 1445
▁dichter 593
▁werden 375
▁begleiten 3476
▁flache 3453
ometer 2273
▁abgeklungen 3527
stellen 2570
erst 2281
▁luft 312
▁nässe 2964
▁tro 302
▁auflandigem 2535
▁ins 1271
▁bl 242
▁wolkig 720
▁inseln 2060
lant 2506
▁befindet 3315
vorhersage 259
net 651
üd 99
▁gesagt 1947
erseite 3290
zeitig 1497
▁angeneh 2015
▁hochnebelfelder 1618
▁sechzehnten 1718
▁wettervorhersage 261
▁norddeutschland 705
▁schl 1129
▁kölner 1951
doch 2131
▁stunde 2817
▁weniger 1058
▁nachmittag 463
ortlich 2563
▁sozus 3302
▁e 805
▁großen 2928
us 167
▁reißt 2410
ark 1379
elt 1760
▁dritten 1749
▁wärmer 747
▁nennens 3018
▁leichte 1928
▁heraus 2875
▁heiße 1670
▁verkehr 1984
▁meisten 1597
flut 3506
▁überall 746
gige 2696
▁füh 1902
▁verlassen 3281
meer 1032
▁siebzehn 654
▁während 816
▁weiter 318
egentlich 966
tember 919
skandinavien 2276
▁nichts 1714
feld 2876
▁sternenklaren 3486
▁sonniges 1525
▁nasskaltes 2634
▁beispiel 1988
äft 3106
ersituation 3291
▁lagen 1252
ießt 1176
nebel 869
▁wochenmitte 3354
lenburg 2135
▁vereinzelte 1921
ein 68
weit 3237
▁ende 2142
▁erstreck 1922
▁jahreszeit 1952
▁sobald 1833
▁frühlings 1793
▁mitteleuropa 974
verteilung 3599
▁siebenundzwanzig 1422
zon 1343
▁wohl 1458
▁laufe 655
▁südwärts 2787
▁verstär 2538
einfluss 795
▁gere 3159
▁ems 1853
▁regen 130
▁zweiten 1238
<eos> 5
▁dür 2735
renzen 2372
eits 855
hl 265
▁regn 236
▁zurück 1156
▁südwesthälfte 1242
▁hitzegewitter 1675
▁nordfriesischen 2223
▁überhaupt 3634
risiko 1583
wir 2463
▁wahrscheinlich 968
▁schauerrisiko 2527
▁einen 500
europa 609
rocken 3257
▁wärm 603
chnen 1880
enzen 2730
▁gefroren 2202
mlo 2136
▁unter 452
▁winterwochenende 3397
▁hängen 2899
▁kalt 696
▁gefrorenem 2989
▁schneesch 1012
▁balkan 1792
ei 43
ächen 2555
▁treten 2766
▁warme 1101
▁spätsommer 2355
▁wochen 559
▁durchsetzen 3530
▁spüren 2569
▁luftdruckunterschiede 2213
▁späten 2196
▁bayerns 1494
ärm 584
neburger 2915
▁region 918
▁schneeschauer 1034
▁stab 1828
▁ruhiger 2600
▁alpen 264
▁bestehende 3366
annen 3219
▁aufz 3272
hers 256
▁ruhige 2097
▁unbeständig 1617
▁haben 499
ation 2183
▁winterlich 1848
▁erwärmt 3574
▁verbindet 3515
▁ähnliche 2604
▁tornados 3592
lauflösung 2225
▁südosteuropa 2201
▁sternenklar 1950
▁schließlich 3412
sung 1743
▁gebieten 3336
▁erleben 2658
▁naja 1796
▁dass 936
▁zweiundzwanzigsten 1604
▁orkanböen 1287
▁nachts 2170
kter 2450
▁norddeutschen 3027
▁regenband 1644
öhn 1623
▁mengen 2984
▁trotz 1910
üss 2467
▁trübe 1366
▁angenehm 1855
▁zumindest 1143
▁lichtbl 2023
nter 905
▁nieselregen 2120
▁nordatlant 2672
▁sin 1092
▁bei 301
▁unmitte 3255
sse 1962
▁tiefdruckgebiet 2384
▁könn 515
▁gesam 1887
▁schleierwolken 1501
▁informieren 3543
▁blauer 3508
▁zweiundzwanzig 964
kreich 3073
▁uckermark 2252
bert 3208
fang 1774
imm 482
▁becken 3314
weiten 2814
▁unmittelbar 3632
▁weitet 2550
rech 1026
▁schwappt 3292
▁pfingstwochenende 2997
auen 2307
▁württembergs 2957
▁gebie 403
▁prä 2542
ichtet 3163
▁ohneh 3512
y 30
schle 3223
▁ech 3115
▁leichtem 1842
▁kl 1040
▁öst 826
▁profitieren 2630
▁russland 1650
▁el 560
▁golden 3612
▁fünfzehn 624
▁verlagert 1228
▁rein 2829
▁stärksten 3449
▁plusgrade 1524
uld 2910
▁gewitterrisiko 2320
▁sommerliches 3503
▁erz 926
▁sonntagnachmittag 3644
▁wetterbest 2316
kommen 1141
sachsen 1964
▁kü 183
n 19
▁feuchter 1854
wa 2462
▁mildere 1207
<bos> 4
▁umfangreiche 2633
▁richtungen 759
▁windig 545
▁tagen 509
▁dü 2733
▁heißt 1304
x 29
▁somm 1029
▁kühlt 1708
▁geworden 3513
▁azorenhoch 2411
▁die 85
▁wolkenlücken 1409
▁oberfranken 2440
▁scheint 519
▁atlantische 1731
▁regentag 3240
▁tiefst 2072
▁besteht 1613
▁hundert 2775
▁folge 2220
ister 3069
ontag 410
▁tropfen 1190
▁köl 1640
▁tur 2491
unkt 1153
raus 2504
▁ableger 3039
▁milder 628
▁drä 3123
▁schneeflocken 1466
▁lockert 999
▁bild 668
ucht 1548
gar 861
▁anson 823
▁situation 3131
▁südhälfte 882
▁deshalb 1711
▁register 3285
▁tornad 3022
▁hochwassergefahr 2991
▁mildes 2921
kbar 1051
▁nordatlantik 2684
▁auf 199
gend 2056
▁achten 1695
▁schönen 541
▁vorher 2325
▁polare 3640
▁wasser 2285
umen 3357
▁kühleres 3343
▁mittelgebirgs 2367
ald 689
▁atlantischen 2902
▁zwischendurch 1949
▁anderen 2107
▁beieinander 1357
▁entfernt 3653
▁erst 562
▁regionen 1002
frei 1438
igem 2489
wegs 1108
▁gefrierpunkt 1255
▁islands 3475
▁erfreulich 3594
▁trennt 3565
▁nachmittags 1046
▁inten 2301
▁treffen 3616
ik 726
wärts 1198
▁ges 1550
▁gebir 3333
▁küstenbereich 2565
▁breisgau 811
▁kna 1894
programm 3597
▁herrlicher 2395
▁nahe 1540
