ifft 3070
▁kommen 733
ital 3183
▁entsprechende 1178
▁bild 668
▁rum 3261
imal 2037
▁gerechnet 686
▁lenken 2218
▁keine 1641
▁südskandinavien 2302
▁dichte 792
▁lausitz 947
▁russland 1650
lleicht 1071
▁grenze 1976
▁umfang 1933
i 14
▁hart 2291
▁verkehrsb 2637
▁reich 2050
fen 703
▁sonn 201
antw 2512
▁aug 1150
▁regenband 1644
▁schneegr 2178
▁sinkt 1674
▁gewitterträcht 3514
ema 2314
▁quadratmeter 2261
▁sterne 1227
▁südöst 1758
▁münsterland 3537
ühl 3111
▁kiel 3190
nen 325
▁na 1637
reich 565
lauflösung 2225
▁hochwasser 2250
▁nordöst 1319
▁südwesten 389
▁stu 3245
▁tiefer 1450
▁stoßen 3247
srück 2459
rand 443
▁rauf 2010
lan 3204
▁nä 1753
gnet 2697
▁vorschein 2324
▁scheinen 2578
▁unwetter 526
▁unwetterpoten 1839
▁durchaus 1493
▁ebenso 3399
▁grau 1169
▁schwarzen 2933
▁verlag 1014
ächen 2555
▁stü 422
findet 3061
▁aktuelle 3011
▁nordwesten 298
▁schauernähe 2582
ieren 1557
▁hochsommerlich 2990
▁ro 1879
meer 1032
vorhersage 259
▁aufzieht 3274
unter 617
▁des 418
▁winterliches 3477
ungs 1834
▁dreißigsten 1459
▁zum 233
</s> 1
▁kil 2297
▁ostseeküste 1770
▁mei 270
▁unterschiedlich 1531
▁sonntagnach 3325
unddrei 880
▁sommerliche 1851
ttember 1629
▁druck 3124
bt 172
▁stellt 2573
▁verbindet 3515
gehend 784
▁verlauf 2537
▁nordmeer 1824
gel 1739
ock 2039
▁auftauchen 2970
ber 101
▁zwei 395
pitze 3086
▁ergie 796
egel 2392
▁frank 1247
▁triebe 3374
tige 3097
▁freuen 3286
tzen 3440
▁hun 2495
▁recht 564
reicher 2003
▁nebels 2865
▁nachmittagsstunden 2195
▁polen 1485
▁nordrhein 1979
▁erstmal 1104
▁zwischenhoch 2877
▁föhn 1639
▁ersten 1276
erd 616
em 146
ran 892
▁einhundert 2793
▁grö 1377
▁kl 1040
▁gerät 2363
▁vormittags 1935
▁vier 332
etzen 2580
▁kü 183
▁frühlingshaftes 3557
▁verbreitet 449
▁schweden 2842
▁kla 1055
▁schwüle 2618
▁februar 1087
ire 1740
▁bill 3154
gebiete 1387
leibt 3392
are 3045
achsen 852
hl 265
orgt 555
▁klaren 1992
▁trockenen 2867
d 9
sen 458
cker 1652
itz 604
▁pf 2071
▁lich 1811
▁gra 104
▁alpen 264
▁bewölkung 2027
▁niedrig 3591
▁regenschauern 2093
▁dreht 1800
unken 3187
▁tiefst 2072
▁null 626
▁wärmegewitter 3442
▁gewittr 1084
eutung 3265
hein 336
v 27
▁finnland 3021
▁sp 409
▁auflockerungen 2245
▁anhält 3234
umen 3357
▁leich 649
▁als 492
▁landes 1840
▁feuchter 1854
▁fünfzig 3312
▁zurzeit 2904
▁gi 290
ass 814
▁eh 873
▁wurde 3002
▁hagel 1447
▁küstennähe 896
▁regnerisch 1653
▁april 1142
▁torna 2768
▁sinken 1365
▁th 1268
▁eingel 3210
▁niederschlagsgebiet 3583
▁mai 1106
▁warme 1101
▁wochenmitte 3354
brand 2688
nd 44
b 7
▁be 322
men 1113
▁angenehmer 2981
▁nordatlant 2672
gra 1210
▁freundliche 1118
öhn 1623
▁seine 2583
▁schau 3173
▁ausge 2534
▁dicke 2472
▁driften 3604
▁sorgen 1184
ol 122
▁schneef 576
▁ging 2754
▁sofern 3301
▁südöstlichen 1954
oten 1689
▁rar 2916
iert 1380
▁nordseeküste 1383
mäh 1293
▁fran 1149
lässt 2883
▁damit 1116
▁klart 998
lä 473
▁einfach 2304
ünstigt 3375
landigem 2523
achen 2300
▁golden 3612
▁gesamten 1958
ier 156
▁osteuropa 1565
rei 121
▁nicht 483
ch 39
eg 1314
sten 65
▁england 1489
tik 2043
▁bald 2485
▁einhund 2792
▁erneut 2647
▁siebzehn 654
vember 1007
ich 59
▁paar 442
e 10
▁irland 2248
enden 3119
▁nordfrie 1233
▁gestreift 2956
▁örtliche 2197
▁verläuft 1338
▁elften 1665
wer 1692
▁bewölkt 629
▁herrliche 2943
▁keinen 2620
▁gewar 2807
▁sternenklare 3584
eszeit 1888
ft 132
gem 3062
▁luftmassengrenze 2232
mark 1504
▁her 431
▁gesagt 1947
▁beglei 1843
▁bilden 1240
öst 958
▁unbest 867
ta 3094
▁erwar 763
▁frankreich 1309
sommer 3093
front 1605
dig 3053
üt 2726
land 147
twetter 3317
▁überschwemm 1686
zehn 186
▁nachmittags 1046
▁kräftig 524
▁gewittrigen 2925
gs 341
▁lö 1827
▁bestimmt 899
▁wetterchara 3253
▁starken 946
▁sylt 1956
uf 357
▁em 1127
▁januar 1098
▁trockene 1600
▁biskaya 2435
▁allmäh 1297
▁noch 137
df 2264
▁weihnachts 3551
▁windgeschütz 3547
▁meiste 2549
▁w 46
▁hochs 1454
fronten 2878
▁t 70
▁durchsetzt 2995
▁stürmisch 502
▁sodass 1765
▁winter 908
▁herbst 1134
▁vogtland 1103
▁sonnenstrahlen 2679
▁vorerst 2326
ppt 2625
▁ange 2810
ell 1199
▁blä 1189
eutschland 229
erung 1747
▁hochdruckwetter 2007
ara 2686
▁nahe 1540
▁dichter 593
▁daz 540
olken 136
▁extreme 2643
ieselt 1334
▁lan 724
▁skandinavientief 2385
▁vereinzel 517
landen 2820
unk 1893
▁verschwind 2021
▁erwärm 2834
schied 828
ick 721
angen 1352
▁stärk 1593
assen 1520
▁tauwetter 1498
▁zuvor 2821
▁am 83
bst 1022
▁sommerlichen 3409
äck 1878
▁meteorologen 3579
▁oder 250
▁etw 246
▁tälern 2290
rie 1874
▁beruhigt 1310
▁region 918
▁gegen 853
▁gewitternähe 1608
▁luftdruck 800
▁schick 3176
llen 466
▁abseits 1218
ierende 3254
europ 558
▁seinem 3351
▁el 560
▁tief 257
▁fängt 1551
undzwanzigsten 549
▁wochenhälfte 3353
auso 2206
▁auftreten 2412
▁nordwestlichen 2895
▁vierzehn 577
▁erreichen 1013
gige 2696
▁momen 1677
▁nasskal 1942
▁wolkenfront 3248
▁pass 1832
▁wund 1752
▁lie 411
▁nordseeinseln 3497
▁südostbayern 1926
ück 982
▁ihren 2892
▁auflösen 2330
▁lokale 2403
▁wolkendeck 1645
rächt 2334
▁harz 3181
▁u 2049
egen 674
▁islands 3475
enende 2144
ag 66
▁wälder 3606
▁freundlicher 627
breitet 435
ges 1200
▁flache 3453
äu 750
meert 2360
ckermark 2235
▁qu 1163
▁scheint 519
▁einzel 373
▁erwärmt 3574
▁gere 3159
▁nordsee 363
bru 2687
▁inter 2059
▁nordwind 1895
ess 2756
▁dauerregen 1081
▁e 805
ütz 2727
▁s 41
▁tiefsttemperaturen 2642
▁hochrhein 3316
über 162
ik 726
▁strahlender 3555
▁schauerartiger 2528
▁angst 3233
▁westfal 1997
sland 841
deckt 1787
ige 230
▁regional 2101
▁örtlichen 2577
schei 2803
▁elbe 1136
▁abkühl 1656
▁höchst 1245
rm 313
▁zähen 2940
▁hochwassergefahr 2991
▁südwind 2063
amm 1398
▁wolkenreicher 2818
ationen 3517
ischend 1481
▁nat 2148
▁abgesehen 1369
▁windgesch 2531
ss 2275
önn 511
ießlich 2219
▁glatt 1004
▁regn 236
▁von 192
erseite 3290
ats 2074
▁verb 2179
▁zwanzigsten 2002
▁kälte 1427
▁wetteraus 2315
tlich 384
uen 1967
▁trockenes 1658
cht 204
eutsch 210
▁pfingst 2421
▁kräftigsten 3348
▁in 87
stem 2477
▁juli 904
eh 91
p 21
u 26
▁wol 634
▁auto 2763
▁süden 163
und 51
▁kräftigen 973
▁mittelgebirge 1386
sb 2041
▁dort 370
▁köl 1640
ahr 605
▁durchwachsenes 2623
▁erleben 2658
unde 2749
▁erreicht 847
▁hochnebelfeldern 3454
▁tagen 509
▁rand 2280
▁einzu 3211
▁verh 3278
hlen 1909
▁leider 1771
▁sechsten 1603
▁konnte 2996
▁beg 678
▁niveau 3145
gland 527
unterschiede 1716
▁kräftige 531
▁herrlichen 2614
▁durchs 2366
▁umfangreiche 2633
mittag 388
▁nennens 3018
räglich 3305
schub 3224
mm 209
scht 2513
▁nordse 2061
mezzo 3350
▁riesel 2323
▁nied 3017
▁lauf 653
▁nah 1472
▁alpenraum 2337
▁misch 1115
▁neuschnee 2000
gegen 1993
▁rück 3262
▁la 351
▁macht 1137
▁unterschiedlichen 1018
▁wur 2480
▁schüt 2769
ucht 1548
▁erste 1224
▁bergland 566
▁südwärts 2787
▁ungemütliches 3478
nebe 2165
▁führung 3519
gaden 3063
anc 1700
immen 1661
▁äh 915
▁uhr 3602
rängt 2851
ücken 959
▁angenehmen 2947
▁nordseetiefs 2640
sg 625
ssen 906
▁sonnenstunden 2359
▁schwül 1412
l 17
▁regenmen 1901
▁oberen 2882
▁ecke 3384
▁tröpfel 2430
▁mittelwert 3341
▁frostige 1998
▁nie 2746
▁zurück 1156
▁schneeverwehungen 1250
▁kal 571
▁locker 1720
▁unwettergefahr 1838
asser 1778
dru 3055
war 615
iveau 2236
▁lebt 2405
▁gefrierenden 1777
▁auflock 2973
▁ad 2738
▁braust 3491
▁lenkt 1082
▁dreihundert 2340
▁fäll 419
▁wenig 637
▁vorsicht 997
es 57
▁ostseenähe 2554
doch 2131
▁veränd 2838
er 38
ternach 2286
ir 485
▁droht 3560
▁ern 2175
▁nichts 1714
▁kna 1894
▁dänischen 3464
▁ende 2142
anzieh 1904
eiß 728
▁starkes 2566
▁irgend 3489
▁meine 2053
enburg 1221
▁näch 416
▁wir 145
▁genauso 2227
▁sauerland 1290
▁möchten 2889
ap 2685
ende 469
egentlich 966
▁glatteis 1725
▁jeden 1109
ält 1277
▁wochen 559
▁phas 2847
▁zentimeter 1538
▁gewin 2987
nde 3135
▁tun 1891
stand 2742
tte 818
▁verbleibt 3516
▁reichen 1442
▁tröpfelt 2664
trop 1263
▁drä 3123
▁förmlich 3615
▁ins 1271
▁tiefstwerte 3500
▁frühlingshafte 3505
ler 3074
▁abges 1358
ze 833
▁manch 1174
▁frei 340
▁saar 1634
▁norwegischen 3474
▁wechselhaftem 3502
▁durchgezogen 2592
▁gute 2873
▁anderes 3582
▁nieselregen 2120
imeter 1468
▁küstenbereich 2565
bay 1292
▁gar 2155
zwanzig 247
▁bisschen 537
▁wolkenfeldern 2103
▁azorenhochs 3531
licher 1477
▁ausbrei 1519
▁abkühlung 1735
▁südostwind 2364
▁sonnen 516
▁zwölften 1841
▁gehalten 3161
kt 354
▁außerdem 1626
▁sturmtief 1418
himmel 3065
▁intens 2434
bl 1737
▁frostigen 2353
▁kommt 498
▁dire 1750
▁dauerfrost 1672
▁größere 2230
tsommer 2338
fallen 1226
▁vom 685
▁münchen 3536
▁trüber 2906
▁tiefen 2852
enken 3118
rum 2078
▁liegen 987
ät 1746
▁biskay 2305
▁gewitterrisiko 2320
reicht 735
ien 309
▁trifft 3373
▁erle 2328
sar 1963
▁freundlichem 3287
▁dringend 2626
▁lücken 1321
▁schleswig 1208
▁tropfen 1190
druck 454
näckig 2428
sischen 1875
▁hochwassersituation 3493
▁ausn 2174
glätte 1870
▁entspannung 3404
▁tiefsten 2853
▁neunzehn 876
▁schneegriesel 2259
ocken 1505
ru 378
▁milden 1996
esam 907
ällen 1566
iegen 3150
▁extrem 2983
▁nordwesteuropa 2586
gen 55
▁gleich 1378
▁sechsundzwanzigsten 1662
▁sicher 2825
onten 2757
▁daran 1822
▁aufklart 1246
▁thürin 1432
lagen 1188
ieb 3149
▁atlantikhoch 3400
▁begleiten 3476
▁halbwegs 3621
▁ganz 437
▁kurzzeitig 2963
nn 169
▁weiteren 2186
▁besser 2019
▁zugs 3250
▁vollem 3352
▁die 85
geh 767
entlich 2470
lbar 3076
▁sonnenschein 557
dehn 2690
ngen 2271
ießt 1176
ßen 1344
▁achtundzwanzig 1384
▁dom 3126
▁gesunken 3446
▁wärm 603
▁gab 1820
▁mitte 281
ischem 2318
äh 333
▁heranfl 2901
x 29
▁bislang 2797
▁neue 938
▁ch 1630
▁sternenklaren 3486
echnet 684
ab 1340
▁sozusagen 3642
▁folge 2220
▁flaut 2667
▁sonntags 2869
hundert 951
▁niedersch 1332
ritten 1727
ay 542
ehen 676
eut 189
▁gebie 403
wir 2463
▁rot 2632
▁stat 2522
agt 1697
ßt 2048
▁landesteilen 1433
▁zugspitze 3628
ge 398
▁gew 2168
etter 133
falls 1430
▁käl 781
▁geschneit 2969
▁reste 2783
▁wahr 960
▁regentrop 1274
▁aktu 2423
▁insgesamt 1021
lauf 1272
▁mildesten 2605
▁wetterbest 2316
▁aufklaren 1852
▁b 53
▁schauerrisiko 2527
▁einhunderts 3029
ß 32
▁schwache 2856
▁vergangenen 2420
▁oberschwaben 2678
▁drängen 3603
▁gefährliche 2401
▁lange 2208
lö 1440
witter 1517
▁luftdruckunterschiede 2213
▁tiefdruckgebiet 2384
▁wenigsten 2203
▁niederschläge 1434
▁verw 1651
ig 69
▁wieder 222
▁bewölk 1924
▁wechselhaftes 920
tbl 1966
▁mond 3425
▁osthälfte 706
▁bemerkbar 1062
▁relativ 1436
▁nordwesthälfte 801
ast 1180
▁leichte 1928
▁fernsicht 3020
zus 3103
▁da 79
▁gu 427
▁und 54
▁himmel 753
▁morgenstunden 3225
▁nennen 2747
leich 1305
▁höhe 2905
▁wasser 2285
▁wolkenlücken 1409
▁geschlossen 3481
▁konnten 3532
ximal 2047
heit 1871
▁orkanartigen 2939
▁glatteisregen 2117
▁begleitet 2025
▁heftigen 1668
iges 752
▁nör 1148
▁neblig 1074
▁dank 1533
▁lokal 1569
▁franken 2221
▁abkl 2556
▁bucht 1588
ja 1469
teils 2953
▁vertreiben 3638
be 448
▁regionen 1002
io 3068
▁kalt 696
wohl 2123
▁tiefe 2335
▁küste 736
▁überhaupt 3634
ichten 806
▁dünne 2128
▁nieder 585
▁norddeutschlands 3371
klungen 3507
zieht 2106
dessen 2692
▁zuge 2822
▁bringen 618
sachsen 1964
gramm 3421
▁entsteht 2966
▁trotzdem 2246
▁nächte 2080
etrüb 3194
eswig 1204
form 2446
▁aufgeh 3273
risiko 1583
▁regnet 292
▁start 2193
▁trockenste 2868
▁turbulenzen 3012
▁zustande 3629
ers 217
g 12
woch 2140
ontag 410
▁durch 658
▁traumwetter 3542
▁text 2665
▁flach 1614
lösung 1791
▁abschnitte 1339
auen 2307
meter 1213
▁manchen 2211
▁erfurt 3270
ei 43
pause 2713
▁westfalen 2030
erseits 3289
▁schne 181
▁ledig 3465
▁gewit 176
▁atla 675
wolken 611
▁gefrierendem 2090
▁oh 2167
▁schnell 1559
▁zehnten 1773
▁zur 715
▁jederzeit 2377
trächt 3098
chtig 2837
▁wird 170
erts 2731
▁gipfellagen 2422
▁lock 731
▁lokalen 2952
▁verdichten 2024
zon 1343
▁gegeben 2515
▁zeigen 1059
▁längere 695
europas 1609
▁frühling 2624
▁entfernt 3653
▁tag 182
annen 3219
mlo 2136
▁anson 823
▁darunter 2971
▁fließt 1215
▁schauerwetter 3256
is 73
läuf 857
▁tiefaus 1015
▁tür 2493
▁ste 467
▁einzelne 412
▁nordnord 3199
▁verlä 1324
▁begrüße 3648
öh 1220
▁aprilwetter 3415
▁entsprechend 2386
▁su 2737
▁neiße 1865
▁spür 3337
ö 34
ül 1375
▁dau 2295
▁regengebiet 1322
▁ergiebigen 2095
fach 2032
▁prozent 3432
▁freundlich 216
▁kam 3189
▁langsam 756
schi 3221
▁bisher 2796
▁änderung 2215
olen 1478
▁bes 528
▁siebenundzwanzig 1422
▁ruh 845
zo 3101
▁geringen 3360
▁dominieren 3605
▁machen 718
imm 482
spegel 3445
▁atlantikluft 2011
▁neb 289
teilung 2018
▁großbritannien 1437
▁pfingstwochenende 2997
▁vo 554
▁europas 1631
von 1342
▁rauskommen 2397
▁nach 109
▁mittlere 3498
▁wunderbaren 2635
undert 2750
▁deutsch 891
▁mitteleuropa 974
▁strenger 1682
orgen 116
▁ech 3115
▁vorderseite 3510
▁abend 283
▁angesagt 3569
▁bedeckt 1912
▁richtiges 2546
▁unwetterpotenzial 1867
▁kämpft 3567
▁einander 2794
▁wolkenverhangen 1627
▁stürmt 3339
▁ 36
wachsen 1508
▁trüben 2937
ue 2721
ürlich 2212
▁rund 2322
▁rhein 640
▁sachsens 2611
▁haben 499
des 3052
▁orkan 838
▁zusamm 1516
kommen 1141
▁neben 825
▁min 314
spiel 1946
▁bodenfrost 1260
we 832
▁sternenkla 2955
▁überfr 2827
▁abklingen 2677
▁regentag 3240
▁besch 989
▁bevor 1031
▁sch 71
▁übernimmt 2415
eden 2693
läge 1421
▁grie 2156
endem 2073
▁halt 2773
▁radarfilm 3649
▁sonnenstra 2579
in 123
to 2717
▁plat 3298
den 219
▁winde 1905
▁behalten 2154
üssen 1586
stein 1185
ischendem 2951
▁sowohl 2543
▁häufig 884
<s> 0
echien 3277
▁fielen 3563
▁hol 1167
frost 1035
ken 110
▁höchstwerte 2388
▁wolkenschle 3249
▁gefrierpunkt 1255
ive 1785
orm 2055
▁neues 1423
▁zweiundzwanzig 964
▁trüb 991
▁richt 263
▁frankfurt 2936
▁nächten 2081
pfen 1146
▁reg 213
sh 2715
ill 2701
▁eintausend 3213
▁strahlenden 3556
temperaturen 1329
▁gefrierender 1107
▁tiefausläufers 2661
tag 138
▁alle 1483
▁weil 3142
▁möglich 582
▁star 349
uchen 2044
▁startet 1914
▁wirklich 1762
▁hohe 2017
hers 256
hnach 2447
▁siebenten 2884
▁verurs 3282
▁raum 1724
▁leichtem 1842
für 1144
▁kühlere 1043
▁mittelmeerhoch 3420
▁okt 971
▁hur 3178
gr 1960
orden 2778
▁verantwortlich 2676
▁wegen 1147
▁unterschied 848
▁zäher 1678
▁kühler 497
▁sonnenhoch 2358
▁mainz 3395
▁sonst 202
chara 3122
sgebiet 3092
▁akt 2146
tla 599
ale 2520
▁glat 985
lage 1371
▁weitergehen 3313
kl 2133
▁rein 2829
▁berlin 1602
▁lagen 1252
▁bayer 1303
▁schneeflo 1457
▁trübes 2922
▁lediglich 3656
kal 1262
ina 962
▁atlantischer 1943
▁siebzehnten 1775
▁orkanart 1288
cke 2843
▁intensiv 3000
morgen 2453
deutsch 2691
▁dänemark 1862
▁südwesthälfte 1242
▁kälterer 3401
▁wetterdienst 932
ellen 2694
▁vers 2536
▁konn 2418
▁entwickelt 2601
▁relat 1408
▁reifglätte 2662
ffen 2033
▁jetzt 661
▁internet 2639
▁naja 1796
▁spätsommerwetter 3529
▁anfangen 2205
▁auflöst 2836
rop 510
▁zeitweise 691
▁derzeit 1348
▁streift 2621
▁windiges 1715
tsächlich 1655
▁statt 2674
▁chancen 1863
▁fünfundzwanzig 865
▁frostfrei 1487
▁sechsundzwanzig 1360
weden 2914
▁wetterberuhigung 2675
▁währenddessen 2911
▁nieseln 3480
▁wetteraussichten 2437
ck 225
ikt 1544
ger 1036
▁nähern 3457
▁zentralen 3423
▁anhalten 1320
▁verm 2331
▁gefriert 2590
▁flusspegel 3541
▁steigen 1110
▁dem 358
neit 2711
▁heranziehen 3483
▁sechshundert 1920
essen 1821
▁wiederum 3293
▁wolkenschleppe 3627
▁nacht 134
▁gelten 1286
reten 1978
▁einen 500
▁bevorzugt 3041
▁krit 2298
▁kann 399
lin 1545
▁regenf 768
uld 2910
▁morgige 3019
▁sonntag 362
ieben 2484
▁verhältnis 3283
▁dü 2733
▁kleinere 3430
▁ausbreiten 1543
▁temperatur 355
▁tiefem 2545
▁trö 2287
örm 3108
▁baltik 2112
öhnt 2935
▁jahr 1654
itze 1079
▁dan 1151
ion 839
ersituation 3291
sstunden 2100
▁vie 267
▁dessen 3338
deck 1281
zeich 3104
▁genug 2616
▁mor 2748
▁pos 2845
▁mal 226
▁nebelfelder 730
▁oberp 2881
▁wetterberuh 2524
▁wochenbeginn 2888
werte 2020
dien 911
▁eine 619
▁heftige 990
▁span 1994
▁zwar 1452
▁wolkenver 1594
ehm 788
▁einunddreißigsten 2115
äum 3107
▁hochnebelartige 3534
programm 3597
▁kä 2777
eigen 3134
ts 287
▁werte 699
ehr 300
▁lockern 1844
hessen 2700
iebt 3151
▁wetterbestimmend 2438
qu 923
▁deutliche 2371
▁hohen 2398
▁posit 3035
▁atlant 681
ström 2743
ver 794
tal 1965
▁zent 1269
▁son 90
ockert 2638
ech 208
▁einem 961
▁genießen 2949
▁ergiebig 1244
▁lebha 3031
▁verstär 2538
▁achtzehnten 1931
▁weiteres 2557
▁dahin 1513
renze 1120
echsel 439
▁situation 3131
▁profitiert 2241
▁lockert 999
▁gefähr 1479
▁hall 2771
▁unter 452
▁herr 1330
▁thema 2390
▁profitieren 2630
▁ziemlich 1168
▁unterwegs 1135
iebe 3152
▁adria 3561
öhte 3422
▁hunsrück 2670
löst 2705
seite 2277
immel 742
eide 2740
▁zweigeteil 3332
vor 237
▁meteorol 2907
▁luft 312
▁vierten 1567
get 1868
▁aber 194
kbar 1051
▁passiert 2238
▁wetter 151
▁main 900
estört 2532
lichtet 2510
▁könnten 2886
reifen 3226
▁vormittag 846
ben 148
▁zeit 472
▁einschließlich 2655
▁entsprech 1083
orna 2752
bare 3050
▁österreich 2913
▁geschehen 2968
anuar 1095
▁eisig 1941
▁freundlichsten 1225
flus 692
▁sommerlich 2105
▁kon 2058
▁fünf 311
▁zahlreicher 2432
▁draus 3127
eren 1183
aben 493
ria 3495
▁eingef 3212
▁feuchte 1624
▁kriegen 3622
▁tiefdruckzone 1937
gie 757
▁ruhiger 2600
▁starkregen 1419
▁beieinander 1357
zer 3102
▁wolkiger 1361
▁allenfalls 2898
bend 282
na 1628
▁schwere 945
▁zwischend 1599
▁ges 1550
▁aus 196
▁tornad 3022
ll 106
▁gibt 296
isch 152
▁tau 1025
▁sommertag 2608
▁dar 1892
▁muss 666
▁gewinnt 3587
▁ber 348
▁entladen 2226
▁ihr 2891
▁bereich 2346
durch 3056
▁wechselhaften 2887
llt 2509
ehende 3203
▁ma 647
▁rothaargebirge 3044
stellen 2570
▁sechsunddreißig 2357
▁siebenhundert 2354
▁hell 3372
▁ausbreitet 1906
▁bereits 1299
▁herrscht 2944
▁rost 3116
▁zweigeteiltes 3645
▁dritten 1749
rän 3304
▁eben 929
▁gebietsweise 429
▁he 714
▁zusammen 1541
reiches 2890
▁ab 310
▁verwandeln 2237
▁ster 995
▁schluss 3618
▁seewind 2595
wärts 1198
▁schneefallgebiet 2098
▁thüringer 1857
▁führt 2650
▁mün 2481
▁mengen 2984
sturz 3015
▁richtigen 2855
▁klingen 2383
▁apr 1128
▁liebe 592
▁trockenheit 2190
aus 683
erkbar 1053
ckar 2540
kla 2702
werten 2958
▁regenschauer 745
tl 2042
▁folgt 1784
▁frisch 343
▁dienstag 434
▁letzten 2016
▁azorenhoch 2411
▁nörd 1160
hälfte 238
▁abgeklungen 3527
▁mo 1316
unkt 1153
▁mitternach 2310
stunden 1884
ießen 2379
ören 3109
▁alpentälern 2547
▁werden 375
rocken 3257
▁norddeutschland 705
▁schon 404
nähe 727
▁außerd 1589
▁höhenlagen 2680
ha 470
▁wärmebelastung 3647
▁wintersp 3396
▁viel 293
▁mittel 465
▁gep 2312
immend 2356
kü 913
▁juni 1278
▁südlich 813
▁wechselhafte 2086
▁vierzig 2559
▁bläst 1209
▁witterung 3590
▁glättegefahr 1849
ug 2279
stag 171
▁gewittriger 3410
▁einundzwanzigsten 1698
▁das 173
wig 1201
▁auflockert 3586
▁harmlo 2258
einfluss 795
▁westlich 1836
▁mildes 2921
▁dennoch 2924
▁ändern 2214
▁gem 3228
▁ausnahme 2998
▁siebenunddreißig 3342
▁wald 1037
▁plusgrade 1524
▁schwarzwald 1217
▁änd 863
auer 135
▁beginnt 886
▁überigen 3259
▁niesel 1885
▁mil 423
▁nordöstlichen 3427
▁ableger 3039
▁montag 417
▁süddeutschland 933
▁spiel 2568
wegen 2141
▁herrlich 2110
▁p 240
▁mosel 2108
▁westlichen 1301
▁f 61
▁klar 394
▁dagegen 921
▁funk 1977
▁hamburg 3023
▁übernehmen 2979
▁massiv 3538
▁flusstälern 3540
▁aufgelöst 2982
▁endet 3473
▁überfrierende 3572
▁verlagert 1228
stell 1253
▁ei 665
▁tr 729
ein 68
▁rieseln 2439
wechsel 2045
uni 1270
regie 2292
▁böigen 3419
oren 1512
▁bra 1974
▁einzug 3626
▁verschär 2961
la 94
ing 1448
ehinderungen 2673
iemlich 1165
▁drei 299
▁englands 3438
▁verwandelt 2408
zig 1549
▁mittelgebirgen 815
▁peuap 2848
▁lockeren 2374
einflus 1890
lar 350
▁laufe 655
▁erdru 3271
▁stre 2815
▁ungewöhnlich 2414
▁auflösung 2329
▁herbststurm 3581
arz 1130
unddreißig 887
est 180
weise 149
ertag 3121
▁zwischendurch 1949
zel 272
▁fort 2157
lieben 3078
gehen 2268
ings 632
eicht 1068
bwohl 2689
kay 2270
frei 1438
▁neu 533
▁mittag 1826
dlich 2265
▁zuschauer 589
▁atlantiktief 2231
so 2716
▁gering 2589
▁kleinen 2615
etiefs 2499
▁atlantikt 1570
▁seite 2473
▁wes 2479
▁ihnen 610
▁ein 102
▁weihnachten 3550
▁front 3309
lat 789
▁lüneburger 3004
lösen 2228
äft 3106
▁niedersachsen 2361
▁stab 1828
▁tagsüber 894
▁häufiger 1139
▁breit 2893
▁kühlsten 1990
fall 922
▁niederungen 1610
▁nächsten 491
▁plus 496
▁strei 1480
▁wetteraufzeichnungen 3630
or 52
▁atlantischen 2902
▁müssen 2054
▁abschwächen 3038
▁sogar 868
▁verteil 3280
▁saarland 1795
▁alles 1830
reichen 797
schnit 1308
▁bekommen 1453
▁auflandigem 2535
▁ruhigen 3388
▁wenigen 2084
▁gestaltet 3459
ängt 1509
▁hervor 3340
stigt 3138
▁besserung 2954
nee 1897
▁unbeständiges 1158
▁stürmischem 2576
▁au 62
▁regengebiete 2519
os 2038
▁thüringen 1944
age 227
▁ost 303
ptember 1089
rö 645
gegensät 2251
▁größten 1945
geräum 3408
▁sobald 1833
▁angenehme 2416
▁näh 1638
▁elf 743
wit 174
au 113
▁fünfundzwanzigsten 1521
▁schneefälle 1078
▁tsh 3171
▁warmen 2597
▁schneefällen 2199
fang 1774
hält 2182
esluft 1756
▁grad 107
▁überigens 3633
▁gil 1755
▁wandert 2424
ör 981
▁ostsachsen 2861
pp 1582
▁landesteil 1282
ief 234
▁reif 2409
▁schiebt 3177
▁betroffen 2636
▁dafür 1152
▁heranfließt 3040
▁sommer 1048
teorol 2764
▁oktober 978
▁neunten 1837
fil 3060
icke 1776
▁mischung 1122
etzt 579
iesel 984
▁vierhundert 2558
fit 1805
▁zwölf 669
niveau 2454
▁don 297
▁hochsommer 2229
▁nähert 1860
quer 1372
▁gewitterböen 1703
▁ital 2151
zogen 1693
▁böen 461
gt 243
▁andauernden 3487
▁dabei 353
▁windiger 2530
▁schließlich 3412
▁ausgeschlossen 3635
▁geht 657
gegeben 3334
▁lä 405
▁tauwetters 3439
▁weite 1767
▁lag 3236
▁für 177
▁meisten 1597
▁strahlen 2613
einzel 514
▁wunder 1802
▁zahl 2293
▁übermorgen 2828
▁sonnige 1411
strömung 3562
trei 3096
▁regen 130
▁vermischt 3523
uft 254
▁zähe 2161
▁trocken 329
▁regentief 3241
<pad> 3
▁bodensee 1462
▁wettercharakter 3631
sung 1743
▁starker 1045
▁best 635
▁allerd 667
tem 291
▁beruh 1279
▁daneben 2671
▁men 2152
▁weiterziehen 2866
▁mittelgebirgstälern 2441
▁hitzegewitter 1675
▁nass 1346
▁steigendes 3411
▁höher 1194
eit 223
her 771
▁sprühregen 2029
▁dri 3125
at 268
nt 486
▁deutschland 305
ad 2031
▁richtung 347
▁gefrieren 803
▁tatsächlich 2257
▁gol 3158
▁länger 701
esteil 1275
▁gel 739
▁radar 3394
▁harmlose 2651
▁nur 255
▁turbul 2668
aden 1370
▁unwetterart 859
<bos> 4
rig 2456
▁august 1179
▁nordische 2780
▁doch 1091
▁hochnebel 986
▁teilweise 231
mer 488
▁fünfzehnten 1717
▁südens 3258
▁spätsommerlich 3528
▁seltener 2113
älzer 3275
▁tro 302
grade 1248
▁vorüber 1235
gesch 1869
▁innerhalb 3623
▁entla 1302
▁dien 433
ation 2183
▁achtundzwanzigsten 1769
▁tren 2765
▁voran 2533
sichten 889
schnee 1899
▁bew 580
▁frischt 1768
▁einher 2791
▁pfalz 1908
▁temperaturunterschiede 2347
▁tiefausläuf 2381
▁aussehen 3573
klich 1741
wegischen 3435
olar 3082
▁fall 552
▁mittleren 2419
urs 2808
▁warm 827
▁bleibt 306
▁zögernd 3025
▁moment 3462
▁zäh 1318
▁präsent 3007
läufer 902
▁abziehen 2343
▁heftiger 2373
och 92
▁brei 570
ht 1006
neh 3080
▁mittw 382
▁wolkenreiche 2819
▁verlagern 1673
beginn 2659
▁stabil 1866
ial 1806
▁zustand 3251
▁während 816
zeit 819
▁nordeuropa 1823
▁südosthälfte 802
▁damen 2057
kehr 1807
▁öfter 2567
▁frostig 1016
gezogen 1709
▁wunderbares 2977
▁warmluft 1779
orol 2751
schw 1273
▁neunundzwanzigsten 1456
▁bei 301
skandinavien 2276
▁ostfriesischen 3518
▁mö 561
▁blicken 1596
▁bildet 687
iv 1050
▁dreiundzwanzigsten 1564
▁wa 3141
▁hochdruckeinfluss 885
▁hoh 1390
frankreich 3494
▁norden 166
▁höhen 2594
▁nimmt 1818
▁mecklenburg 2210
▁weit 941
▁nämlich 2022
▁a 42
▁herbstwetter 1620
▁wolken 144
▁gesam 1887
▁übergehen 2965
▁bestehende 3366
▁n 47
gewitter 1523
ften 1011
▁löst 2313
▁morgen 119
▁gewitterträchtigen 3659
▁breisgau 811
and 583
▁wenn 1154
▁nasskalt 2413
▁weht 352
steigen 3140
▁sinkenden 3428
nung 1873
▁nordost 758
änd 574
▁tre 3170
▁kräftiger 765
▁jul 895
▁kältesten 2619
▁andauer 1729
▁längerem 1719
▁waldbrandgefahr 3042
▁westen 193
inieren 3227
nungen 956
agel 1446
▁oberfran 2352
▁graupelschauer 1789
▁heft 725
▁fünfzehn 624
ürin 1405
▁informationen 3544
fal 1401
▁geringer 3553
ern 438
▁gefährlicher 3436
nemark 1825
▁schauer 160
▁achtzehn 707
öger 2725
langt 2164
▁nordostwind 1845
sicht 957
rigen 831
▁brä 2753
alb 1056
▁sternen 1619
▁nachthälfte 1592
▁anges 2811
▁frischen 2184
▁klein 1391
▁balkan 1792
▁allmählich 1312
▁neunzehnten 1723
▁beispiel 1988
▁har 2160
▁norddeutschen 3027
▁zunehm 1047
▁fünfhundert 1989
▁erfreu 3033
▁bayern 737
▁aufgelockert 2641
▁tiefs 764
ärm 584
tz 1507
▁abends 1766
▁erwarten 1243
▁schneefallgrenze 1461
▁versorgt 3549
▁zunehmend 1061
▁gebiet 1710
▁überwiegend 901
▁dichtere 798
▁württembergs 2957
poten 1808
stälern 3139
▁direkt 1801
▁hängen 2899
▁wit 2745
see 244
▁immerhin 1254
▁nachmittag 463
▁sah 3129
lle 2798
▁entst 1859
▁üb 864
▁taut 3406
▁verschwindet 2125
boten 3048
▁überqu 1558
▁lockere 2092
lassen 2062
eine 1166
▁osthessen 3310
ennen 2728
▁temperaturen 387
▁weiterhin 677
▁leichter 849
▁harmlosen 3520
üsse 3113
▁kar 3188
▁gewitterschauern 2617
rech 1026
▁wettervorhersage 261
punkt 1161
▁südeuropa 3206
▁schauern 534
omm 328
▁ostsee 481
▁oberfranken 2440
▁inklus 2779
▁stro 2816
▁letztendlich 2417
▁wind 178
▁dadurch 3186
▁bil 575
▁stunden 1117
schiede 1669
▁wolkig 720
▁kein 1476
ßig 220
ster 1636
▁schien 3174
▁wochenende 594
▁hochnebelartig 2999
▁ne 376
▁mä 269
▁etwas 271
y 30
wetter 402
oßen 3084
schig 3222
ppe 3448
ächst 648
▁begin 761
▁durchwachsen 1528
fte 232
▁becken 3314
rem 1039
▁schl 1129
▁türkei 2669
▁warmer 2575
▁allzu 2831
▁blü 2544
▁gut 734
▁neunhundert 2572
elauflösung 2266
▁entweder 3391
▁nordhälfte 762
▁nordischer 3198
▁anderen 2107
▁frühl 1571
schen 530
▁sich 154
▁temperaturgegensätze 2560
▁nordosteuropa 3379
▁feuch 1261
▁beiden 2341
▁unsere 3306
nord 2710
rz 1315
ah 532
keit 2451
over 3083
▁frühlingshaft 2644
▁nächster 2082
▁nordfriesischen 2223
▁heranzieh 1917
iger 380
▁maximal 2091
▁wahrscheinlicher 3402
w 28
▁südhälfte 882
▁schönsten 3470
▁mittelmeerluft 2934
▁geworden 3513
▁halten 1094
bert 3208
▁dementsprechend 3643
k 16
▁rügen 1435
▁jahreszeit 1952
▁sonnigen 2177
▁groß 1049
älle 644
ließlich 2452
▁gekommen 3229
▁daraus 3185
▁dauer 807
▁stei 935
verlauf 1615
▁schott 1475
▁gelangt 2169
▁südost 613
wegs 1108
▁kau 842
▁große 1938
wald 1162
▁verschärft 3585
▁sehen 1443
▁traum 2494
▁atlantiktiefs 1948
▁italien 2255
▁vierunddreißig 2191
▁g 56
▁oberhalb 1420
▁massiver 3539
▁stra 1323
▁richtig 1132
ausend 2207
ussland 1612
▁südosten 364
▁sicht 1702
▁emsland 1335
▁woch 425
▁zähem 3426
ach 84
▁nächste 1205
▁sechzehn 690
sy 2458
liche 1212
▁ostfriesland 2649
▁gr 3155
▁finden 3165
▁sieht 1325
▁erken 3268
▁nordmeert 2502
▁beim 2076
halten 1124
▁zunächst 650
sche 808
ä 33
tsp 963
▁hartnäckig 2431
▁berg 3318
▁stark 401
gar 861
▁ohneh 3512
aar 414
▁breisg 809
▁kaum 850
▁selten 1465
▁verwöhnt 3461
▁unmitte 3255
▁hä 671
▁mild 937
▁island 1819
▁nordrändern 3624
▁polare 3640
enzen 2730
m 18
wärm 2464
▁erfre 2833
gebir 518
▁matschig 3609
▁ausgedehnten 3588
▁aktuell 2663
▁gen 1406
▁hessen 2772
▁ruhige 2097
▁schwarz 1172
▁südostwärts 3362
▁se 606
▁stürmisches 2885
gefahr 1192
t 25
ört 2378
▁vertrei 3284
▁holsteins 3418
▁klasse 2929
▁unserem 3381
ant 3218
▁abgedrängt 3526
ringt 2870
▁niederbayern 2005
▁herbstst 2932
▁wetterdienstes 977
▁deut 704
ng 424
▁einigen 844
▁zieht 507
▁es 67
osten 228
▁mat 3148
▁klarer 3331
anfang 3220
felder 543
o 20
▁vermehrt 2994
brei 1467
mlich 1023
▁feu 1008
▁gehen 1975
▁hoher 1364
▁nördlich 1535
ebe 2830
▁sprü 1995
▁schüttet 3566
▁land 568
▁ostermontag 3576
▁see 760
▁verschnaufpause 3034
▁fol 1024
▁tschechien 3509
▁frühlingswetter 3472
▁schw 221
▁schickt 3619
▁späten 2196
▁samstag 368
eder 3058
ngt 1251
▁diesen 1514
▁nordmeertief 3545
▁ist 168
▁wärmer 747
▁prä 2542
bruch 3013
▁diesem 1193
▁westhälfte 948
uar 1090
se 97
▁weg 1511
gegensätze 2262
stärke 1864
tsweise 428
s 24
▁früh 770
▁berchtesgaden 3320
kei 2134
▁anhaltend 2109
eutet 1647
▁reichlich 2127
▁tja 2289
▁intermezzo 3496
▁überquert 1577
▁geregnet 3613
▁z 75
▁gebiete 3335
wehungen 1249
▁anhaltender 2393
▁auffrischen 2116
▁mit 118
ez 1063
hältnis 2988
sch 117
▁schwachen 2857
rücken 3089
▁heranzieht 2122
▁zwischen 453
▁aufklar 1072
▁heißt 1304
▁quell 1306
furt 2427
rüb 3087
▁strömt 810
aut 3217
lag 955
▁temperaturgef 3322
▁kleines 1679
▁schauert 1381
▁zurückzieht 3416
stär 2478
▁kommenden 1157
▁entspannen 3403
jahr 2449
▁württemberg 1861
▁südwestlichen 2362
▁griechenland 2256
▁erfahr 3269
▁hohem 2111
▁unwetterrisiko 2581
▁momente 1798
▁west 445
deutschland 538
▁wetterauf 3252
gsam 754
icken 1439
▁fast 1211
▁pegel 2846
▁sauer 1265
▁was 1376
▁vor 188
▁verd 1831
▁steigenden 2931
▁bevorzu 2926
▁eis 1284
▁dunst 2429
has 2698
▁deutsche 2602
▁eigentlich 1285
▁stren 1555
▁lässt 1099
▁dichteren 2896
▁selbst 2389
▁bayrischem 2897
▁nord 88
▁kräftiges 2198
▁grenzen 2755
▁nordosten 413
ralen 3202
▁herrlicher 2395
▁regnen 710
ark 1379
▁oft 1223
inav 992
lei 862
▁wolk 639
erorts 787
▁entstehen 2242
▁folget 2606
▁leichten 1492
west 390
▁ruhrgebiet 3389
erungen 2282
▁südwest 588
▁unge 1981
▁frü 698
▁einstell 3209
▁kurze 1537
▁wi 105
annung 3328
▁nordöstlich 1396
urch 623
▁isar 2052
▁ung 1482
esten 126
▁wechselha 495
eht 273
▁gestreck 3458
▁eines 1010
▁atlantische 1731
▁kräft 276
rischem 2714
iel 1407
sä 3091
▁führ 2244
▁drin 1633
stur 2741
▁verlassen 3281
▁vierzehnten 1666
▁wechseln 1455
▁bal 1444
kand 979
▁azoren 1883
▁einundzwanzig 934
reck 1757
▁südbayern 3207
eilung 3243
fr 455
▁lo 608
re 74
zeichnungen 3600
▁blei 288
falz 1790
▁bedeutung 3441
▁dage 916
▁september 1105
▁zumind 1131
öen 278
▁nachlässt 3216
▁hier 285
▁ausgedehn 3005
▁besteht 1613
gebie 774
▁rieselt 1764
britann 1400
▁kaltfront 2369
ße 2724
äch 307
band 1399
▁einiger 2789
bringt 3049
tet 324
▁dahinter 1575
▁steigende 1940
▁bo 881
▁südöstlich 3469
▁thüringens 3485
fangen 3364
▁kühlt 1708
zieh 1182
stärk 1815
▁großbritann 1431
▁wür 1587
▁uh 3117
▁folgen 1463
böen 408
▁temperatursturz 3323
schle 3223
▁frischer 578
▁ö 407
▁mittwochs 3330
a 6
geben 2194
▁sicherheit 3571
▁sternenklar 1950
▁meter 1080
▁teil 143
▁genau 2399
ähe 596
▁meeresluft 1786
▁begrü 3369
▁mittelgebirgst 2368
▁vorpommern 1736
▁nebelfeldern 1333
▁trotz 1910
▁inten 2301
▁nordrand 3197
▁setzt 1345
weit 3237
tälern 2460
▁lassen 1300
kandinavien 1005
▁sin 1092
▁stellenweise 487
▁ander 2938
▁allgäu 1171
▁westwind 1486
▁gange 3611
ust 1126
onders 712
▁balkantief 3471
▁rheinland 1927
▁abgezogen 2344
▁nordstau 2503
▁herbstlich 2387
▁ausfallen 1298
▁h 72
▁inform 2500
▁verkehrsstörungen 3043
▁tiefland 2854
▁ih 569
▁kurz 1728
▁wen 444
ü 35
zt 2722
▁zusammenkommen 3443
▁spä 480
▁auffr 1705
▁lei 490
geteil 2967
▁einiges 2790
igen 381
▁mains 1782
▁bringt 662
▁regenfällen 1932
▁alpenrand 494
pel 1294
ister 3069
fran 2034
nlich 851
▁spielt 3552
▁schneever 1236
ckt 3294
▁schön 1772
▁gewitterfront 2321
▁sech 371
▁or 820
gebieten 3380
▁lü 2517
burg 1159
▁kühlerem 3344
▁waren 2085
cken 252
▁ändert 1001
▁pola 3299
är 785
▁unbeständig 1617
▁kühle 909
▁sozus 3302
lossen 2380
▁sternenhimmel 3455
▁beschäft 3405
lt 1687
▁stürmischen 897
▁atlantisch 1362
▁m 49
▁inner 3195
▁vorboten 3264
▁mitunter 744
▁schweren 1986
▁entsp 988
▁brandenburg 1368
▁o 112
▁ostern 2859
aup 1515
▁unmittelbar 3632
▁den 111
isik 1552
regen 652
▁hält 1296
<eos> 5
▁oster 2858
agen 475
▁wolkenband 2171
▁einmal 1699
▁landesteile 2391
▁ir 1972
▁get 3156
▁tiefdruckgebiete 1726
üh 3110
te 63
wär 1181
▁auft 1889
▁türm 3172
inn 2065
enkt 2729
▁platz 3639
etz 522
▁aufgel 2068
▁bed 1522
am 277
wind 612
▁graupel 1307
▁holstein 1197
kreich 3073
▁kommender 3376
wert 3100
▁flachland 1733
▁schneefall 866
▁entfern 3451
▁schneeschauern 3407
▁samstags 3326
▁sorgt 563
▁gipfeln 3501
▁phasen 3036
▁besten 3153
▁raus 1388
ommer 1657
neburger 2915
▁somm 1029
▁hochdruckzone 1930
▁mitternacht 2436
undzwanzig 248
▁nordital 3200
q 22
▁alpenvorland 3308
▁oben 2799
▁wie 697
rä 251
▁wetters 2823
▁gestreckte 3654
grenze 1230
▁ausnah 2425
▁feucht 1573
▁seen 3359
▁teilen 1170
▁geb 396
ische 2067
▁produ 3433
▁erwartet 1000
▁später 503
rin 377
▁norddeutsch 2781
▁umfangreiches 3484
▁mögen 3355
▁ostfrie 2185
▁eisregen 1788
▁mäßiger 501
▁nebel 317
▁deutschen 950
▁krie 3191
▁bessert 3452
raum 1553
▁längsten 1918
▁verstärken 3006
▁vielerorts 1075
▁verkehr 1984
▁reicht 1470
▁sollte 3524
▁überqueren 1542
▁erstreckt 1959
▁landwirtschaft 3008
▁donnerstag 359
richt 2457
▁luftmassengegensätze 3450
▁sieben 474
▁reißt 2410
▁zieh 360
▁zumindest 1143
▁eher 1195
aufpause 2993
▁oberschw 2574
tw 339
ter 64
▁ungemütlich 1858
▁vorbei 1983
hund 912
▁hitze 1186
▁dieser 860
uss 621
wei 129
▁hö 719
de 513
▁dreißig 791
stau 2476
uation 2461
▁feuchtere 2240
▁überwiegen 776
▁strengen 3447
▁großen 2928
pfel 1691
europa 609
wo 1968
eln 773
▁baltikum 2129
▁flüssen 2209
▁bestehen 1527
▁winterwochenende 3397
▁nordat 2501
▁bem 1054
▁nun 266
auchen 2801
all 327
▁überall 746
▁stärker 1794
lang 2784
▁gro 1038
vorland 3295
▁erst 562
aten 3046
▁i 48
▁sturm 397
▁fulda 3614
atur 335
▁versch 1706
▁achthundert 2348
▁schwäch 1985
hen 2036
▁diese 660
▁einsch 2303
▁bl 242
▁hauptsächlich 1684
▁mass 2482
▁ohnehin 3658
▁sie 224
▁regens 3239
▁östlichen 976
ruck 450
▁zweiten 1238
weh 1231
us 167
▁end 1813
▁tage 1355
drei 872
lant 2506
wie 476
▁himmelsbild 3580
ieder 190
▁funkeln 2028
▁ja 567
urger 2809
▁seiner 2584
▁vord 2162
▁hurrikan 3620
▁dro 2734
▁ruhig 1780
▁dichten 1331
▁hinein 3393
▁frost 471
▁acht 393
▁mittelgebirgsraum 2660
▁mon 3146
▁dann 195
bereich 2166
▁eins 2788
▁folgenden 1732
▁peuapeu 3037
▁größtenteils 2976
▁november 1020
▁tornados 3592
ieh 326
▁äußersten 1121
▁folgetagen 2681
▁gewitterschauer 1410
rgebiet 3090
▁darüber 2243
▁sonniger 1449
▁tshir 3617
▁hochnebe 2192
▁weiter 318
▁ausnahmen 3533
▁bayerischen 1395
sel 365
▁durchweg 2591
▁knack 3482
▁dezember 1086
schie 741
▁donner 346
▁hoch 334
▁letzte 1730
ischer 2526
tember 919
▁al 203
ehn 159
▁heftig 1529
▁jedenfalls 1939
temper 337
▁gefrier 638
▁tschüss 2645
▁übern 1982
gebirges 3347
▁mildere 1207
▁richtungen 759
▁chanc 1734
▁orkanstärke 3386
pro 3085
▁en 489
▁übrigen 870
▁rauskommt 3429
▁man 779
▁autoschei 3564
montag 2708
ckerungen 2234
▁dieses 1138
haar 2699
▁getrübt 3610
▁rest 2782
▁trübe 1366
▁trennt 3565
▁tsch 2158
▁beeinflussen 2974
ten 158
▁schleierwolken 1501
▁gesch 1886
igem 2489
▁schneit 548
▁verändert 3575
ahl 2263
ent 1202
▁stürmischer 1385
▁häuf 688
▁vorher 2325
igt 1222
▁tiefdrucksy 2607
▁mittelgebir 663
▁soll 2332
▁ext 2096
▁sonne 164
▁süddeutschlands 2920
wanz 205
▁fl 740
▁überhaup 3260
ieß 983
▁gelenkt 3377
▁dementsp 3324
▁einzelnen 1133
▁betri 3490
▁me 751
erreich 2732
▁kräftigere 3349
uer 682
▁wärmsten 1925
▁waldbrand 2927
▁ihn 3356
üss 2467
▁tallagen 3003
ar 131
▁auch 96
lus 374
▁entw 858
▁mancherorts 1229
▁baden 1473
▁teile 1556
▁spanien 2124
esgaden 3162
▁tut 2288
reiche 2088
▁norditalien 3625
rikan 3598
▁brin 436
haup 3067
▁höchsten 2382
▁meist 284
ßer 980
▁schwach 295
reme 2496
▁l 128
▁treten 2766
▁gefroren 2202
▁ausläufer 1560
▁neunundzwanzig 1568
▁glätte 917
ont 1445
▁anfan 673
▁ger 607
▁an 127
fluss 738
▁schein 506
▁anfangs 748
ren 713
▁heiße 1670
▁rande 2992
▁et 245
▁tiefere 2336
▁fünfunddreißig 1911
▁gilt 1803
fl 2132
zoren 1877
▁ruhiges 1216
ade 2130
ste 415
▁ober 468
▁warnungen 1488
▁äu 1065
▁württember 1683
▁bergen 679
igung 2490
▁neun 456
▁nor 1816
▁zwischendrin 2404
▁hochnebelar 2426
renzen 2372
▁kaltluft 1426
▁neuer 1239
▁angefangen 3568
kord 3072
▁hochdrucklage 2903
▁kühlerer 2087
▁guten 556
beg 2351
lig 1064
ungen 447
ehmen 1671
▁überschwemmungs 3463
▁heide 2774
wochenende 2253
▁achten 1695
▁zei 600
ur 125
▁einer 1351
lich 108
▁entlang 1499
▁häufigsten 2099
▁je 927
▁mark 2483
▁wei 294
erisch 1632
len 2704
▁der 77
▁zu 150
▁steht 2880
bayern 1311
▁gerade 2200
j 15
▁fün 304
ächt 2465
▁le 1701
▁insg 1009
iefs 1561
▁erhöhte 3522
▁zweiundzwanzigsten 1604
▁wolkenfelder 1041
ehnt 1903
▁berge 3319
▁höchstens 2012
schauer 400
▁schn 478
▁auffrischendem 2960
▁größer 2948
▁schwer 2180
▁beschäftigen 3650
▁dür 2735
▁warmes 2598
▁heißer 1846
komm 954
▁schwächt 2841
▁wolkendecke 1685
westen 197
▁dreiundzwanzig 1057
tig 2278
▁strömung 2909
altet 3244
isiko 1576
▁hochlagen 1601
nis 2709
▁schneeschauer 1034
gtland 1097
süber 888
▁tausend 2767
▁vorübergehend 1336
▁nehmen 2150
emm 1646
▁len 972
lücken 1403
▁verantw 2539
c 8
▁dreiunddreißig 1987
▁menge 2985
▁ex 3383
om 2137
▁fr 279
wischen 1374
▁kilometer 2433
▁natürlich 2254
hin 544
schein 464
▁freundlichste 3288
h 13
▁überg 1763
ichtet 3163
▁bla 2153
▁intensiver 3535
▁schneien 1102
beruh 2508
n 19
zeitig 1497
ziehen 1536
▁feb 1070
mitte 2562
st 45
kühl 1572
il 274
▁quellwolken 1313
seln 1915
▁ton 3169
▁luftmassen 1598
▁ziehen 572
ann 369
häl 235
▁liegt 856
▁stürmische 716
gst 2035
fahr 953
▁könnte 1663
▁schwüler 3431
▁samm 3130
▁schwerpunkt 2648
lenburg 2135
▁anhaltende 2941
ürm 3112
▁finn 2761
pomm 1690
▁anders 2474
seenähe 2507
▁einhundertsieben 3593
▁zweistellige 1916
▁ungefähr 3492
▁ems 1853
▁metern 1393
▁haup 1591
▁dane 2498
tausend 2718
ehrt 2552
▁abs 1191
ortlich 2563
windig 3361
▁sonnig 590
▁morgens 2804
▁milder 628
▁pro 1413
▁gefrorenem 2989
klar 940
fft 2444
▁nordrä 3196
ost 457
decken 3345
▁herankommt 2900
▁treffen 3616
inie 2806
▁ra 890
▁kühlen 2187
▁ostbayern 2860
▁weiten 1563
ogen 1581
▁gefr 614
▁inseln 2060
▁beginn 1495
▁bestand 3365
▁zweiunddreißig 2349
▁gipfel 2075
▁ähnliches 1389
derzeit 2311
emütlich 1829
sstör 2919
▁ostwärts 1451
▁südschweden 3028
acht 2299
▁dingen 656
▁nas 3144
▁nieselt 1754
▁kühleres 3343
▁spree 1359
▁seinen 2001
eute 153
chtesgaden 3276
▁nähe 2149
▁steigt 1936
▁regenmengen 2026
▁war 477
▁frühen 2094
▁sagen 1882
▁zehn 521
immt 775
angenen 2396
▁geben 893
ndern 1971
▁niederrhein 836
▁inklusive 3026
▁orkanartige 1367
fan 630
▁tieferen 3307
bald 1804
▁brand 1317
alten 722
zen 1969
▁quad 2222
▁bewöl 598
▁erdrut 3636
▁küsten 379
eite 1751
▁senken 3133
pr 1114
▁süd 100
ert 366
ßerd 1585
▁starke 1044
▁unwetterartigen 1781
▁weihnach 2551
ituation 2497
▁europa 2143
▁gest 1643
▁höchsttemperatur 2612
egt 3059
nders 693
rik 3088
▁windstärke 2319
▁obwohl 2800
▁sollten 3525
▁begann 3368
f 11
▁ergiebige 1496
▁skandinavien 1067
▁runter 1649
▁vielleicht 1073
liert 2706
ung 249
▁bestimmen 1667
▁etwa 1030
▁nördlichen 1621
mal 602
einander 1295
mit 356
mäßig 3596
ringen 3329
röm 766
▁roten 3479
ald 689
▁dreizehn 641
▁schlei 1474
▁setzen 3132
▁weitere 1415
▁gewittrig 2930
erst 2281
estens 3230
▁kalten 2004
reta 3182
▁gepäck 2657
eb 187
▁zeigt 755
▁herbstliche 3414
▁unwetterwarnung 2013
rü 1546
gang 3064
pen 262
▁aufz 3272
sst 914
▁herein 2874
▁blitz 1326
per 331
drängt 3057
▁odernähe 2850
kter 2450
▁informieren 3543
▁sein 551
▁witter 3016
▁wunderbar 1955
▁dün 2051
▁himmelsb 2908
r 23
▁hochnebelfelder 1618
ull 622
▁siebten 1490
▁windgeschwindig 3548
▁wobei 2006
▁auffrischender 3504
▁komm 385
zone 1397
▁kreta 3193
▁nochmal 942
▁zurückziehen 2610
he 2269
der 120
▁minusgrade 1835
▁andauernd 1953
massen 1580
▁kräftigem 1664
bar 879
▁wäl 3143
▁los 1611
ro 161
weg 1460
▁erh 2327
▁bö 1203
▁donau 790
▁fre 214
▁böig 1676
▁ansteigen 3235
nebel 869
▁ganze 1280
▁oberrhein 539
▁dä 1694
▁fallen 664
▁füh 1902
▁freitag 342
▁wünsche 829
▁können 547
eits 855
▁spüren 2569
▁bekommt 2345
▁gleichzeitig 1625
▁blitzen 2942
▁dünn 3559
▁besonders 717
lück 3077
auf 2306
▁nordwestwind 1923
▁dre 1748
verteilung 3599
▁te 2468
▁wün 821
best 817
▁marke 2666
<unk> 2
▁lang 2077
ott 1404
▁sieb 595
▁einfluss 1759
▁streifen 1680
erwolken 1471
▁hinaus 2376
▁milde 928
ort 361
zial 1809
▁rü 1382
ember 723
zzo 3105
frie 1119
rück 2274
raus 2504
▁ent 1606
▁sowie 646
▁verg 2069
appt 3047
indet 2541
▁anfang 1929
▁runtergehen 3460
sp 1547
eien 1093
▁sonnentag 3346
▁nordosthälfte 1140
▁gewitt 1028
▁schwappt 3292
chnen 1880
iver 2448
rost 420
▁wohl 1458
▁stabile 2631
▁beeinflusst 2247
vorhers 258
▁mittl 2064
küste 1175
▁gefahr 1761
eich 1635
▁angeneh 2015
fter 1578
ischen 323
▁chance 3468
zent 2723
▁deutschlands 441
▁dicht 1232
tags 3242
▁größ 1539
äll 320
▁heraus 2875
lätte 835
▁kühles 2188
▁nebelauflösung 2339
▁nässe 2964
icht 185
▁ungetrüb 3437
▁hallo 3024
▁sturmstärke 2872
nischen 3081
▁ruhe 3387
▁regenwetter 2518
▁nasser 2946
▁andauernder 3488
▁breitet 1069
▁quer 2469
▁wetterregie 2317
geb 406
▁dehnt 1970
▁überschw 1648
äl 200
▁gelegentlich 967
▁mach 586
▁gefährlichen 2950
chen 924
▁tauchen 1464
▁jedoch 2217
hangen 1579
▁rheins 1425
▁produz 3652
▁mittelmeer 1206
▁dauert 2653
▁nordwest 587
▁einstellen 2795
▁ergieb 799
▁vielen 1562
▁letz 1354
le 1742
▁erz 926
▁fuld 3166
isches 2824
vert 3099
▁fiel 2759
▁stellen 484
bur 1123
▁r 184
▁strom 3032
▁lichtbl 2023
▁kur 1187
▁rut 3263
▁wechsel 446
▁st 142
stung 3137
end 260
▁vierundzwanzig 1076
▁j 280
al 141
alt 2521
▁erzgebirge 952
▁blauer 3508
▁unwetterartig 1259
▁deutlich 709
▁wenigstens 2204
pa 2712
▁bess 1607
▁straßen 1500
▁bet 1973
▁freundlichen 2070
▁deshalb 1711
▁landwir 2585
▁rostock 3601
▁unbeständiger 2375
ree 1347
sät 2138
▁herum 2571
chten 1510
▁sechzehnten 1718
euap 2785
rauen 3201
▁einunddreißig 1554
net 651
▁ang 3231
assersituation 3385
▁gewittern 546
▁kölner 1951
▁meer 1257
▁auss 2832
▁gewittrige 1196
hregen 1961
▁verkehrsbehinderungen 2683
▁eifel 1033
▁profit 1856
kan 749
mp 2707
▁gebieten 3336
ür 786
ometer 2273
▁so 241
▁fünften 1707
▁dich 432
et 82
▁verkehrsstör 2980
klus 2703
gentlich 1267
▁trü 1256
▁regenfälle 837
näck 2272
ord 86
▁unwettern 1999
▁mäßig 286
neb 843
▁ansonsten 830
▁erheb 3521
▁allen 643
▁freundliches 883
▁dass 936
▁halb 3180
▁leb 2812
▁sel 1264
kommt 1783
▁unser 783
ulden 3382
▁westeuropa 1660
▁dauernebel 1847
▁kom 3192
▁unten 2826
▁herren 2083
rhein 430
▁per 3296
▁sondern 2333
um 581
▁beeinflus 1913
▁hinter 2009
uh 672
▁kritisch 2654
▁mittwoch 383
enähe 2471
▁bezieh 2189
▁boden 903
▁erzgebirges 3398
rübt 3444
▁hochw 1991
▁davor 2296
nach 1688
stens 1590
▁heiß 772
▁herbsttag 3413
▁oberpfalz 3578
▁stärksten 3449
▁aussichten 944
▁wetterdien 925
xt 1744
▁führen 2972
▁kälter 949
▁neuen 1173
▁gott 3160
▁leichtes 2918
ütlich 1810
▁gefallen 2514
el 115
▁dürfte 3014
llem 3215
▁ström 782
▁wechselhaft 529
▁überschwemmungen 1799
▁durchziehen 3367
▁südlichen 1350
▁durchsetzen 3530
▁sechs 508
▁abge 2342
▁glatteisgefahr 3466
▁zw 321
▁sam 367
▁sind 344
▁trockener 1416
▁einige 601
ne 98
fel 451
▁nasse 3607
▁mindestens 3608
mpft 3558
▁leicht 910
▁dazu 597
cklenburg 2181
gebiet 975
▁rei 1812
dem 1503
▁weitgehend 1003
on 58
▁dazwischen 1424
▁äußer 1085
▁nachts 2170
▁niederschlag 2945
▁polar 3300
reift 2805
▁ostwind 2553
▁krä 275
▁frische 1417
▁umfangreichen 2975
▁allerdings 670
▁sei 3128
▁nachlassen 2511
▁windgeschützten 3660
▁frühjahr 2596
▁mind 3147
orts 780
eis 1696
▁seit 1881
tt 1373
▁dez 1066
▁ehesten 1363
teil 1584
entsp 3120
lichen 459
▁wetterlage 1595
hoch 1341
▁schö 520
▁abschnit 1328
▁wo 694
▁vierundzwanzigsten 1659
▁tats 2159
z 31
▁breiten 877
eu 95
fern 2445
sterland 3456
▁gegensä 3390
ola 2455
rit 1052
▁orkanböen 1287
▁sa 2284
▁normal 2628
▁könn 515
▁vereinzelte 1921
▁betrifft 3657
▁wollen 2593
▁ham 2770
▁denn 1027
▁gestern 2233
▁teils 479
ie 50
▁hatten 2008
▁schneeregen 1112
▁fern 2758
▁winterlich 1848
temperatur 338
▁ver 212
▁neiß 1817
ra 89
▁wand 2147
▁bayerns 1494
▁unwetterartige 1428
▁währ 812
▁normalen 3009
▁minus 315
▁osten 218
ober 969
▁bedeutet 1681
me 550
▁no 996
samm 1506
▁wenige 1712
▁zdf 2294
▁er 198
▁schneeflocken 1466
undlich 215
iter 1872
▁siebenundzwanzigsten 1713
▁tur 2491
▁woche 708
▁tal 2492
▁also 702
▁beziehungsweise 2260
esamt 1019
▁abgesch 3311
rechend 2923
ehalten 1980
▁tagesverlauf 1616
▁dreizehnten 1491
▁aachen 2739
▁spürbar 3646
▁un 157
▁ohne 2646
▁märz 1356
fähr 1402
bei 345
sse 1962
▁linie 2813
dass 1738
▁tiefdruckeinfluss 2104
▁verwand 1797
▁temperaturniveau 2561
▁wärmere 2089
▁blitze 2849
▁fü 139
▁legt 2406
ub 2720
ere 372
▁orkantief 2599
ärk 1258
gend 2056
▁ergiebiger 1721
▁um 777
▁wärmebe 3358
ause 2308
▁wahrscheinlich 968
▁höheren 1219
▁schwacher 523
▁ebenfalls 2102
▁nordmeertiefs 3546
glich 573
it 78
stellige 1337
▁förm 3167
▁ge 124
▁frühlingsha 2118
lastung 3205
▁angen 1353
▁gerin 2588
▁viele 591
▁wer 308
elt 1760
gäu 1145
feld 2876
▁gan 3157
anz 165
▁flu 3378
▁danach 1534
▁tiefdruck 1042
ritann 1392
ingen 620
▁unwetterwar 1155
▁sy 1814
▁weniger 1058
wöhnlich 2046
▁ähnliche 2604
lung 3075
▁sichtweiten 2959
▁autoscheiben 3661
en 37
▁allem 316
ähr 711
▁flus 2488
fre 2443
▁kommende 2871
un 80
eil 140
▁knapp 2121
▁strecken 3570
▁kühl 319
▁sehr 525
ingst 2400
tief 1125
▁hinweg 1722
▁blauen 2986
nden 3136
▁hundert 2775
üd 99
schn 1234
▁form 2760
▁sommerliches 3503
▁straßenglätte 2402
tmeter 2139
▁öst 826
▁regenwolken 824
▁zwöl 636
▁schneeregenschauer 2609
üb 633
▁dicken 2736
ket 3071
reitet 386
ruar 1077
öl 392
▁zun 536
schaft 2656
▁able 2864
▁vereinzelt 535
▁kurzer 2962
▁all 191
▁mehr 440
nter 905
▁schönen 541
film 3595
▁ausgesch 3267
roffen 2529
▁and 1266
▁heut 3179
▁klarem 1177
▁sturmböen 462
▁östliche 2912
▁lichtblicke 2126
▁tiefdrucksystem 2682
▁nordatlantik 2684
▁fla 2487
▁zentrum 2224
▁schottland 1502
ut 1441
▁gewittert 2173
üren 2466
▁brauchen 2978
▁mittelgebirgs 2367
▁saale 2652
▁hat 834
▁ganzen 1100
chenland 2216
kandinav 993
art 642
▁d 40
▁unbeständ 871
▁atlantik 939
ratmeter 2163
▁gewarnt 3030
ungsweise 2239
heits 3066
scha 2309
annt 3327
luft 840
▁wärme 1526
▁bis 103
▁südosteuropa 2201
mä 3079
urm 391
▁verhalten 3279
▁verhältnismäßig 3637
▁blick 3303
▁erhalten 2176
▁ho 970
einseln 3168
ün 732
▁windig 545
▁vergleich 3499
öhnlich 2014
▁höch 1017
▁südwestwind 1214
▁laue 3321
▁aufwärts 2835
bul 2442
▁dun 2283
▁verliert 2840
▁östlich 1934
▁abschw 2863
▁andauert 3467
▁schneesch 1012
ri 2040
▁strand 3246
▁rothaar 3010
▁verschn 2839
▁außer 2762
▁herausgegeben 3577
▁tiefausläufer 1111
▁werten 2862
wanzig 206
▁köln 2627
▁wetterwechsel 2172
▁manchmal 3417
▁sonniges 1525
▁heute 155
▁über 175
▁stunde 2817
▁bayerischem 3424
▁wechselhafter 1919
▁nasskaltes 2634
ff 2695
sent 2879
▁davon 1349
▁hin 875
▁kalte 1283
▁bleiben 1237
▁schwächer 2249
flut 3506
▁stürm 426
▁endlich 2119
▁anhaltenden 2394
▁regeng 3238
unden 874
ner 330
▁südsch 2786
▁ausgeb 3266
wa 2462
▁polaren 3641
▁vordringen 3511
▁kältere 1532
▁geringes 3554
▁läng 460
du 3051
rtlich 504
▁auf 199
▁rechnen 1896
artiger 2365
▁dies 659
▁hochdruckgebiet 2370
▁uckermark 2252
▁überschwemmungsgefahr 3655
▁wesentlich 3001
lo 994
▁geh 2486
▁tages 854
▁hochdruck 700
stra 2475
ehind 2505
ild 2548
▁neckar 2564
an 114
ächlich 1414
▁erfreulich 3594
inden 2844
▁fällt 421
▁norwegen 2629
▁böiger 1622
▁alpennähe 1327
▁fegen 3164
▁auflo 1907
halb 1088
▁schnee 207
▁entwickeln 930
älern 1484
tter 3095
ang 2802
▁ich 778
▁daher 3184
▁kleine 1850
tschaft 2719
▁ankommen 3232
scheinlich 965
▁rasch 2917
▁entwick 878
▁unwetterwarnungen 1289
▁angenehm 1855
▁weitet 2550
ind 239
zu 1745
▁schneere 1096
▁überwie 769
▁k 81
▁liter 1900
▁heran 680
▁sachsen 1164
▁ungestört 2622
▁zweiteilung 2079
esch 822
▁wein 2744
▁immer 512
geräumt 3651
▁präsentiert 3589
▁übergeht 2407
gef 2350
▁gefährlich 2114
▁niederlanden 2894
▁südwesteuropa 2587
▁einstellige 1642
as 211
▁winterwetter 1429
▁ähnlich 931
▁re 93
▁erstreck 1922
▁bay 631
▁gebir 3333
▁zudem 2066
gebirge 898
weiten 2814
▁zöger 2776
tes 1876
▁pur 3297
usitz 943
▁regentropfen 1291
▁register 3285
▁vorpomm 1704
▁lösen 1957
ul 793
▁frühlings 1793
son 804
▁beschert 1060
▁kälteste 3434
fur 2267
▁c 3114
▁uns 253
▁gewitter 179
▁höchsttemperaturen 1574
▁v 76
▁denen 1898
▁befindet 3315
▁zwanzig 553
▁kaltes 3370
ander 1241
▁flocken 1530
▁nordfriesland 1394
▁überquer 1518
▁winterlicher 2603
▁schlus 3175
▁gelichtet 2516
▁dick 2145
▁freundlicheres 3363
▁spätsommer 2355
dar 3054
▁grauer 3214
ischt 2525
▁sonntagnachmittag 3644
▁örtlich 505
▁im 60
